// We need to keep the data array aligned on some architectures.
#ifdef __has_attribute
#define HAVE_ATTRIBUTE(x) __has_attribute(x)
#else
#define HAVE_ATTRIBUTE(x) 0
#endif
#if HAVE_ATTRIBUTE(aligned) || (defined(__GNUC__) && !defined(__clang__))
#define DATA_ALIGN_ATTRIBUTE __attribute__((aligned(4)))
#else
#define DATA_ALIGN_ATTRIBUTE
#endif

const unsigned char g_model[] DATA_ALIGN_ATTRIBUTE = {
  0x1c, 0x00, 0x00, 0x00, 0x54, 0x46, 0x4c, 0x33, 0x00, 0x00, 0x12, 0x00,
  0x1c, 0x00, 0x04, 0x00, 0x08, 0x00, 0x0c, 0x00, 0x10, 0x00, 0x14, 0x00,
  0x00, 0x00, 0x18, 0x00, 0x12, 0x00, 0x00, 0x00, 0x03, 0x00, 0x00, 0x00,
  0xb4, 0x27, 0x00, 0x00, 0xb4, 0x1f, 0x00, 0x00, 0x9c, 0x1f, 0x00, 0x00,
  0x3c, 0x00, 0x00, 0x00, 0x04, 0x00, 0x00, 0x00, 0x01, 0x00, 0x00, 0x00,
  0x0c, 0x00, 0x00, 0x00, 0x08, 0x00, 0x0c, 0x00, 0x04, 0x00, 0x08, 0x00,
  0x08, 0x00, 0x00, 0x00, 0x08, 0x00, 0x00, 0x00, 0x0d, 0x00, 0x00, 0x00,
  0x13, 0x00, 0x00, 0x00, 0x6d, 0x69, 0x6e, 0x5f, 0x72, 0x75, 0x6e, 0x74,
  0x69, 0x6d, 0x65, 0x5f, 0x76, 0x65, 0x72, 0x73, 0x69, 0x6f, 0x6e, 0x00,
  0x0e, 0x00, 0x00, 0x00, 0x54, 0x1f, 0x00, 0x00, 0xc4, 0x17, 0x00, 0x00,
  0x64, 0x17, 0x00, 0x00, 0x34, 0x17, 0x00, 0x00, 0x24, 0x03, 0x00, 0x00,
  0x1c, 0x03, 0x00, 0x00, 0xec, 0x02, 0x00, 0x00, 0xe4, 0x02, 0x00, 0x00,
  0xdc, 0x02, 0x00, 0x00, 0xd4, 0x02, 0x00, 0x00, 0xcc, 0x02, 0x00, 0x00,
  0x3c, 0x00, 0x00, 0x00, 0x1c, 0x00, 0x00, 0x00, 0x04, 0x00, 0x00, 0x00,
  0x82, 0xdf, 0xff, 0xff, 0x04, 0x00, 0x00, 0x00, 0x05, 0x00, 0x00, 0x00,
  0x31, 0x2e, 0x35, 0x2e, 0x30, 0x00, 0x00, 0x00, 0x96, 0xdf, 0xff, 0xff,
  0x04, 0x00, 0x00, 0x00, 0x10, 0x00, 0x00, 0x00, 0xff, 0xff, 0xff, 0xff,
  0x31, 0x00, 0x00, 0x00, 0x28, 0x00, 0x00, 0x00, 0x01, 0x00, 0x00, 0x00,
  0xb2, 0xdf, 0xff, 0xff, 0x04, 0x00, 0x00, 0x00, 0x80, 0x02, 0x00, 0x00,
  0x19, 0x56, 0x1d, 0xe9, 0x16, 0xc2, 0xb0, 0xe1, 0xda, 0xfb, 0xe9, 0x02,
  0x1a, 0x1e, 0xfb, 0xbf, 0xe4, 0x22, 0xef, 0xc1, 0x2d, 0xf8, 0x0d, 0xfc,
  0x49, 0x18, 0x49, 0xcd, 0xd8, 0xb6, 0x21, 0xa5, 0xe2, 0xf4, 0x1c, 0x2f,
  0xf1, 0xef, 0xd2, 0x07, 0x97, 0x09, 0x52, 0xdf, 0x40, 0xfe, 0xcc, 0x29,
  0xd6, 0x02, 0x72, 0x1c, 0xff, 0x07, 0xd0, 0xd6, 0xf7, 0xc5, 0x6e, 0x47,
  0x1d, 0xaf, 0x01, 0x0f, 0x93, 0xf5, 0x79, 0x06, 0x0d, 0x0f, 0xe5, 0x27,
  0xec, 0x4a, 0xf5, 0x35, 0x1e, 0x47, 0xce, 0xa9, 0xfe, 0xfc, 0x6b, 0xcc,
  0x08, 0x01, 0xc0, 0x0d, 0xff, 0xe4, 0x75, 0x66, 0x21, 0xfd, 0xda, 0x0c,
  0xde, 0x51, 0x20, 0x14, 0x38, 0x16, 0x06, 0xda, 0x1a, 0x0a, 0x7f, 0x17,
  0xdb, 0x37, 0xcd, 0x2f, 0x02, 0xfe, 0x22, 0xc7, 0x1c, 0x33, 0xc6, 0x69,
  0x2a, 0x20, 0x36, 0x12, 0x2f, 0xd4, 0x52, 0x45, 0xa6, 0xec, 0x3a, 0xeb,
  0xf9, 0x10, 0xb0, 0x29, 0x07, 0x17, 0xf4, 0x81, 0xf4, 0xf0, 0xaf, 0xb4,
  0x9c, 0x32, 0x32, 0xcb, 0xff, 0x4c, 0xe5, 0xf5, 0xdc, 0xfb, 0x41, 0xbc,
  0xd8, 0xf4, 0x0b, 0xbc, 0xcd, 0xf1, 0x17, 0x15, 0xf2, 0xe6, 0xc2, 0x32,
  0x02, 0x3a, 0x4f, 0xde, 0xb4, 0x38, 0x1c, 0xea, 0x81, 0xcf, 0xfa, 0x07,
  0xe6, 0x36, 0xd3, 0x6c, 0xb5, 0xa8, 0x17, 0x51, 0x26, 0xea, 0x1a, 0xda,
  0xa2, 0x0d, 0xfe, 0xbf, 0xae, 0x5a, 0x0c, 0xfc, 0x99, 0x0c, 0x1c, 0xc3,
  0xef, 0xf3, 0xea, 0x35, 0xdc, 0xd9, 0x33, 0xd8, 0xd2, 0xe0, 0xc9, 0xb2,
  0x28, 0xdd, 0x41, 0x0b, 0xb5, 0xd4, 0xbc, 0xb6, 0xd5, 0x01, 0x27, 0xa0,
  0x07, 0xcc, 0x03, 0x38, 0xcf, 0x12, 0x24, 0x2d, 0x2a, 0xac, 0xf9, 0x2c,
  0xde, 0xc5, 0x2a, 0xe7, 0x12, 0xe3, 0xc8, 0x3f, 0x1d, 0xd1, 0x1c, 0x2d,
  0xe7, 0xfd, 0xf1, 0x5f, 0xd8, 0xd5, 0x33, 0x2a, 0x45, 0x13, 0xf9, 0x56,
  0xdc, 0xd5, 0x55, 0xa3, 0xcc, 0x1e, 0xdb, 0xf4, 0xc1, 0xda, 0xfe, 0xe8,
  0x11, 0xc7, 0xce, 0x0a, 0x0a, 0xe4, 0x42, 0x08, 0x16, 0x1b, 0xcd, 0x30,
  0xe8, 0xb7, 0x06, 0x2a, 0x2a, 0xee, 0xf3, 0x2f, 0xd1, 0xcb, 0x3c, 0xf7,
  0xd0, 0xb9, 0x03, 0x09, 0xb6, 0x30, 0x3f, 0x30, 0xc5, 0xe3, 0xa5, 0xfc,
  0x09, 0xb0, 0x1c, 0xe2, 0x4c, 0xd5, 0xdf, 0x26, 0x1d, 0xb1, 0x18, 0xbd,
  0x5d, 0xdf, 0x26, 0x31, 0xe0, 0xf1, 0x17, 0xff, 0x3e, 0xec, 0xbf, 0x25,
  0x19, 0x01, 0x45, 0xb1, 0x5c, 0xf1, 0xdd, 0x1b, 0xda, 0xcb, 0x39, 0x28,
  0x20, 0x10, 0xd3, 0xfb, 0xc8, 0x28, 0x0a, 0x2e, 0x5d, 0xb2, 0xc6, 0x7f,
  0xe9, 0xe9, 0xd7, 0xee, 0xf7, 0xd5, 0xa3, 0x26, 0xc7, 0xef, 0x03, 0x1b,
  0x59, 0xe5, 0x8b, 0x0b, 0x12, 0xea, 0xf5, 0xf5, 0x1b, 0xd5, 0xde, 0x3d,
  0xe0, 0xb2, 0x39, 0xc1, 0x39, 0x22, 0x41, 0x40, 0xf3, 0x81, 0x18, 0xd5,
  0x14, 0x02, 0xcc, 0x64, 0xdb, 0x10, 0xc8, 0xb7, 0x53, 0xef, 0xea, 0x31,
  0x9c, 0x2a, 0xcd, 0x0b, 0x36, 0xd4, 0x0f, 0x05, 0xe3, 0xf6, 0xbf, 0xf5,
  0x34, 0x21, 0xe8, 0xff, 0xe4, 0xe1, 0xd8, 0x14, 0x41, 0xf9, 0x19, 0x30,
  0xdd, 0xee, 0x02, 0x24, 0x31, 0x18, 0x07, 0x48, 0xdb, 0xea, 0xd1, 0xf9,
  0x39, 0x81, 0x81, 0x41, 0xb2, 0xba, 0xfd, 0x0c, 0x3e, 0x16, 0x1c, 0x5e,
  0x13, 0x06, 0x0f, 0xf4, 0x7c, 0x09, 0x1e, 0xc1, 0xc9, 0xd8, 0x1d, 0x25,
  0x6b, 0x0c, 0x20, 0xed, 0xe8, 0xf0, 0x25, 0x3b, 0x5b, 0xef, 0xdf, 0x0c,
  0xea, 0x86, 0xdb, 0x20, 0xfe, 0xb7, 0x09, 0x02, 0xc8, 0xd4, 0xc9, 0xae,
  0x30, 0xcd, 0xdf, 0x14, 0x04, 0xf5, 0x25, 0x38, 0x19, 0xbf, 0xe5, 0x02,
  0xc7, 0x1a, 0xf0, 0x3f, 0x1a, 0xf1, 0xfd, 0x20, 0xb8, 0xee, 0xdc, 0xe3,
  0x7f, 0x22, 0xb2, 0x4a, 0x15, 0x91, 0xd6, 0xd0, 0x57, 0x02, 0x0d, 0xf4,
  0xbb, 0x8b, 0x12, 0xb0, 0x66, 0x2d, 0xa3, 0x3e, 0x20, 0x46, 0x15, 0xe1,
  0xdb, 0xe5, 0x9e, 0x3d, 0xf7, 0xef, 0xff, 0x2f, 0x07, 0xb9, 0x06, 0x12,
  0x0c, 0xc4, 0x06, 0x17, 0x3a, 0xf6, 0x99, 0xd4, 0x25, 0xff, 0x18, 0x44,
  0x1a, 0xd7, 0xc1, 0x11, 0x41, 0x0d, 0xe1, 0xec, 0x5e, 0xcf, 0xe8, 0x2b,
  0xe9, 0xe3, 0xf9, 0xe1, 0x19, 0xd4, 0xaa, 0x49, 0xbe, 0x1f, 0x35, 0xac,
  0x60, 0xb5, 0xd4, 0x75, 0x38, 0x06, 0x1f, 0xe0, 0x47, 0x86, 0x04, 0x49,
  0x33, 0xff, 0x0a, 0x35, 0x32, 0x21, 0xb9, 0x26, 0x08, 0x28, 0x28, 0xee,
  0x07, 0xee, 0x10, 0x51, 0xd9, 0xf4, 0x04, 0x30, 0xf1, 0x9b, 0xda, 0x36,
  0xf4, 0xf1, 0xfe, 0x16, 0x52, 0xe0, 0xe8, 0xe9, 0x04, 0x20, 0xec, 0xff,
  0x62, 0x1f, 0xb0, 0x55, 0x40, 0xdf, 0xff, 0xff, 0x44, 0xdf, 0xff, 0xff,
  0x48, 0xdf, 0xff, 0xff, 0x4c, 0xdf, 0xff, 0xff, 0x4e, 0xe2, 0xff, 0xff,
  0x04, 0x00, 0x00, 0x00, 0x20, 0x00, 0x00, 0x00, 0x89, 0xff, 0xff, 0xff,
  0xb7, 0xfd, 0xff, 0xff, 0x06, 0x02, 0x00, 0x00, 0x17, 0x01, 0x00, 0x00,
  0xb8, 0x02, 0x00, 0x00, 0xc1, 0x00, 0x00, 0x00, 0x73, 0xfe, 0xff, 0xff,
  0x49, 0xff, 0xff, 0xff, 0x7c, 0xdf, 0xff, 0xff, 0x7e, 0xe2, 0xff, 0xff,
  0x04, 0x00, 0x00, 0x00, 0x00, 0x14, 0x00, 0x00, 0xc8, 0xdc, 0x2d, 0x1f,
  0x33, 0xf5, 0x0a, 0x48, 0x24, 0xe0, 0x67, 0x08, 0x33, 0xf8, 0xf2, 0x32,
  0xf2, 0xeb, 0x01, 0x1d, 0x69, 0xf8, 0x28, 0x0b, 0xfd, 0x07, 0xff, 0x06,
  0x7f, 0xe3, 0x3b, 0xff, 0x1c, 0xf1, 0x2c, 0xee, 0x24, 0xf1, 0xcf, 0x0e,
  0xfa, 0x12, 0x33, 0x14, 0x59, 0x10, 0xff, 0x36, 0xdd, 0xe5, 0xf4, 0x1a,
  0x4b, 0x2f, 0x12, 0x3f, 0xfc, 0x19, 0xef, 0x28, 0xf1, 0x1b, 0x0a, 0x0a,
  0xe7, 0xf4, 0x19, 0xe0, 0x07, 0xff, 0x4b, 0xec, 0x1e, 0x1f, 0x0a, 0x1c,
  0x53, 0xf7, 0x33, 0x46, 0x01, 0x19, 0x4c, 0x02, 0x41, 0x10, 0xe6, 0x27,
  0xcf, 0x01, 0xee, 0x14, 0xe8, 0xfd, 0xf5, 0x0f, 0x22, 0x0e, 0xd0, 0x23,
  0x0b, 0x1d, 0xf7, 0x47, 0x0f, 0x37, 0x24, 0xe8, 0x22, 0x10, 0x48, 0x14,
  0xf1, 0x21, 0x2b, 0x28, 0xed, 0x19, 0xf9, 0xde, 0x04, 0x2b, 0x25, 0x14,
  0x40, 0x21, 0x10, 0x62, 0x25, 0x22, 0x12, 0x30, 0x33, 0x2b, 0xfd, 0x0e,
  0x03, 0xcf, 0x32, 0x1a, 0x2a, 0x32, 0x0d, 0x24, 0xe1, 0x0a, 0xe3, 0x3d,
  0x3d, 0xf7, 0xfa, 0x25, 0xed, 0xfd, 0x24, 0xf7, 0xff, 0x09, 0xef, 0xfb,
  0xd4, 0xfe, 0x26, 0xf0, 0x3e, 0x36, 0x1d, 0xe9, 0x15, 0x12, 0x27, 0x28,
  0x40, 0x21, 0xef, 0x4a, 0xef, 0xff, 0x32, 0x34, 0x4e, 0x4d, 0x22, 0x38,
  0xf6, 0xe5, 0x60, 0xd4, 0x07, 0x1a, 0xff, 0xe2, 0x3b, 0x0d, 0x24, 0xf8,
  0x19, 0x04, 0xfd, 0x1f, 0xec, 0x18, 0x3c, 0x50, 0x16, 0xf3, 0x04, 0x2d,
  0xe8, 0x22, 0x45, 0xeb, 0xca, 0x0e, 0x1d, 0xd9, 0x4f, 0xb9, 0xf3, 0xf6,
  0x19, 0x09, 0xe8, 0x05, 0x02, 0xec, 0xf2, 0x0b, 0x28, 0x1e, 0x31, 0x43,
  0xf9, 0x25, 0x52, 0xd5, 0xd1, 0x14, 0xda, 0x25, 0xdf, 0xc6, 0x4a, 0xe1,
  0x10, 0xf3, 0x03, 0x1a, 0x13, 0x13, 0x25, 0x00, 0x18, 0x0a, 0xde, 0x09,
  0x02, 0x58, 0xcb, 0xf1, 0x33, 0xf1, 0x2c, 0xe1, 0xd7, 0xfe, 0xee, 0x35,
  0xd3, 0xf6, 0x00, 0xe5, 0x1e, 0xf5, 0x25, 0x1a, 0x15, 0xed, 0x26, 0xfa,
  0x0e, 0x23, 0x0f, 0xf8, 0x5a, 0x28, 0xf7, 0xf0, 0xf1, 0xe0, 0x33, 0x0c,
  0x19, 0x30, 0x18, 0x10, 0x3b, 0x31, 0x3a, 0x1b, 0xd9, 0xea, 0x15, 0x1e,
  0xb5, 0xe9, 0x6b, 0x1f, 0x27, 0xe5, 0x20, 0x10, 0xd9, 0x0b, 0x38, 0x0d,
  0xcd, 0xeb, 0xe3, 0x17, 0xe1, 0x1e, 0xe3, 0x1d, 0xf7, 0xed, 0xfc, 0xf8,
  0x38, 0x33, 0x22, 0xef, 0xc8, 0xf3, 0x09, 0x03, 0xf2, 0x0c, 0x04, 0x3b,
  0x39, 0x1a, 0xf7, 0x12, 0x03, 0x0f, 0xf9, 0x36, 0x18, 0x11, 0x14, 0x18,
  0xce, 0xfd, 0x2a, 0x13, 0xc7, 0x53, 0x18, 0x17, 0x12, 0x1a, 0x38, 0xf1,
  0x0e, 0xf4, 0xea, 0x1d, 0xe4, 0x03, 0x4a, 0x0b, 0x1b, 0xc9, 0x39, 0x3f,
  0x08, 0x29, 0x35, 0x30, 0xdc, 0xe9, 0xdb, 0x20, 0x07, 0xf6, 0xc7, 0x02,
  0x0b, 0xe4, 0xf9, 0x2d, 0xfa, 0x18, 0xed, 0xe3, 0x24, 0x25, 0xf3, 0xd5,
  0x21, 0x19, 0x10, 0xeb, 0x51, 0x0b, 0x12, 0x24, 0x28, 0x22, 0xe3, 0x08,
  0xeb, 0xf0, 0x05, 0x3c, 0xe0, 0xfa, 0xf3, 0x2b, 0xcb, 0x16, 0x04, 0x32,
  0xd1, 0xf5, 0x2e, 0x17, 0x2f, 0xda, 0x01, 0x09, 0xf7, 0x20, 0xe0, 0x11,
  0xfd, 0x1c, 0x08, 0xf4, 0x23, 0x02, 0x26, 0x04, 0x19, 0xfd, 0x37, 0x07,
  0x27, 0x04, 0xfc, 0xe1, 0x65, 0xf1, 0x44, 0x0c, 0x24, 0x2e, 0x13, 0x1f,
  0xbe, 0xc2, 0xea, 0xce, 0xf7, 0xf1, 0x1c, 0x06, 0x44, 0x16, 0x0e, 0xfd,
  0x02, 0x2d, 0x02, 0x4c, 0xd9, 0xf2, 0xfd, 0x1a, 0x19, 0xf9, 0x0b, 0x1c,
  0x2a, 0xef, 0x06, 0x29, 0xef, 0xec, 0xa3, 0x3a, 0x01, 0x0a, 0x1c, 0xf6,
  0xe1, 0xed, 0x25, 0x01, 0xf4, 0xd5, 0xd2, 0x36, 0x3f, 0xe1, 0x3a, 0xf8,
  0x6c, 0xff, 0x0e, 0x2f, 0xf6, 0x15, 0x10, 0xed, 0x55, 0x35, 0xf4, 0xf7,
  0xe5, 0x12, 0xe9, 0xe8, 0x66, 0xd9, 0xbf, 0xdb, 0xf6, 0xde, 0xe9, 0x49,
  0xea, 0x14, 0xe0, 0x21, 0xeb, 0xfb, 0xf0, 0x36, 0x05, 0x3d, 0xd3, 0x14,
  0xee, 0xda, 0x0f, 0xe8, 0x09, 0x0e, 0x1f, 0xfb, 0x13, 0xe4, 0x2c, 0x12,
  0xe1, 0x2d, 0x05, 0x0b, 0x21, 0x1e, 0xe9, 0x50, 0x38, 0xef, 0x12, 0xde,
  0x22, 0xda, 0xf6, 0x20, 0x1d, 0x0a, 0x2a, 0xf0, 0xe9, 0xf9, 0x58, 0x1a,
  0x24, 0x1a, 0xd5, 0x05, 0x56, 0x06, 0xef, 0xed, 0x11, 0x09, 0x15, 0x13,
  0x08, 0x0e, 0x33, 0xe8, 0xd9, 0x31, 0x17, 0x20, 0xc2, 0x40, 0x4d, 0xf4,
  0x2a, 0x24, 0x30, 0x35, 0x14, 0x12, 0x6e, 0x27, 0xe5, 0x0f, 0x09, 0xea,
  0x0a, 0x1b, 0x04, 0x1b, 0x2b, 0x5d, 0xe1, 0x40, 0xf8, 0x1e, 0x21, 0x2d,
  0xb2, 0xd7, 0x36, 0x1b, 0x2e, 0x07, 0x15, 0x32, 0x4a, 0x21, 0x03, 0x23,
  0xe7, 0xd7, 0x3b, 0xf9, 0x1a, 0x1a, 0xb7, 0x3f, 0x2f, 0x20, 0xdb, 0xca,
  0x11, 0x06, 0x45, 0xae, 0x28, 0xf4, 0xb8, 0xba, 0xae, 0xdc, 0x22, 0x2f,
  0xd7, 0xcd, 0xe7, 0x00, 0x0b, 0x3d, 0xe4, 0x08, 0x27, 0x0d, 0xfa, 0xc5,
  0x01, 0x4e, 0x08, 0xcf, 0xe6, 0x0f, 0xe2, 0x1c, 0xb5, 0xef, 0x1a, 0xe8,
  0xfa, 0xe1, 0xe5, 0xfa, 0x0a, 0xbf, 0x4d, 0x2a, 0xfc, 0xe6, 0xcb, 0xe1,
  0xf1, 0x24, 0x14, 0xf0, 0xf2, 0x63, 0xc1, 0x0a, 0xfb, 0x56, 0xff, 0x1c,
  0xb2, 0xc6, 0x2b, 0xf1, 0x5b, 0xe2, 0x2e, 0x34, 0x1c, 0xee, 0xfb, 0xb4,
  0x05, 0x13, 0xd9, 0x11, 0xe6, 0xf4, 0xf4, 0xf1, 0xd5, 0xe8, 0x26, 0xfc,
  0x20, 0x19, 0xb7, 0x04, 0x02, 0x36, 0x04, 0xcf, 0x1c, 0x02, 0xf6, 0x1d,
  0x14, 0x2d, 0xf9, 0xfd, 0x0d, 0xf1, 0xdf, 0x25, 0xc8, 0x0e, 0x5c, 0x26,
  0x20, 0xa6, 0xf0, 0xbd, 0xde, 0xec, 0xc8, 0xd1, 0xdc, 0xd9, 0x2f, 0x11,
  0x6b, 0xf2, 0x03, 0xd6, 0x45, 0x12, 0x20, 0x31, 0xd1, 0xf0, 0x31, 0x0b,
  0xc9, 0xec, 0xc8, 0x11, 0x43, 0x3b, 0x2a, 0xd1, 0x0e, 0xc5, 0xbb, 0xe1,
  0xfd, 0x25, 0xbe, 0xec, 0xcd, 0xe8, 0xcd, 0x05, 0xfd, 0x4e, 0x06, 0xef,
  0xf7, 0xe1, 0x0e, 0xf3, 0xc2, 0x15, 0x2f, 0x37, 0xfa, 0xe6, 0xee, 0xdc,
  0xf5, 0xe4, 0x02, 0x28, 0xf4, 0xda, 0x8e, 0x1e, 0x04, 0x11, 0x03, 0xb5,
  0x0e, 0x0b, 0xd8, 0x0b, 0xea, 0x12, 0xcd, 0x2c, 0xcd, 0xbe, 0xe9, 0xd3,
  0x32, 0x07, 0xfb, 0xcd, 0x01, 0xd7, 0x9c, 0xfc, 0xc2, 0x09, 0x1a, 0x23,
  0x17, 0xf3, 0x02, 0x09, 0xe2, 0x43, 0xb7, 0xbd, 0xae, 0x06, 0xe4, 0xc1,
  0xa5, 0xc1, 0xe1, 0x05, 0xc0, 0xe2, 0xf5, 0x2a, 0xd4, 0xbc, 0x26, 0x36,
  0x28, 0xd8, 0xc6, 0x05, 0x2d, 0x06, 0x23, 0xda, 0x1f, 0x14, 0x0f, 0xd8,
  0x06, 0x37, 0xd2, 0x4e, 0x1f, 0x1e, 0x33, 0x56, 0xa7, 0x0d, 0xce, 0x02,
  0x11, 0x12, 0xb7, 0x02, 0xad, 0x2c, 0xe6, 0x0a, 0x00, 0xc7, 0xe2, 0xda,
  0xe2, 0xb9, 0xd0, 0xd4, 0xf5, 0xf9, 0x1e, 0x18, 0xd8, 0xfe, 0xff, 0xd0,
  0x42, 0xf5, 0x02, 0xff, 0xf9, 0xd4, 0xde, 0x0a, 0xe8, 0xb4, 0xe5, 0xe0,
  0xe5, 0xff, 0xe5, 0xee, 0x05, 0xb3, 0x03, 0x24, 0x13, 0x33, 0xb5, 0x1c,
  0xdb, 0xee, 0xcf, 0xc4, 0xd2, 0x9d, 0x31, 0x31, 0x1c, 0x16, 0x12, 0x34,
  0xbb, 0x28, 0x43, 0xeb, 0x27, 0xec, 0x88, 0x28, 0x06, 0xfa, 0x08, 0xbc,
  0xda, 0xc2, 0xd1, 0x3a, 0x10, 0xff, 0x0b, 0x07, 0x02, 0x08, 0xd4, 0x18,
  0xeb, 0xe7, 0xfb, 0x3d, 0xdc, 0xb7, 0x32, 0x00, 0xa3, 0xe7, 0x54, 0x5b,
  0x32, 0x24, 0xf0, 0xc8, 0xe4, 0x12, 0xf1, 0x00, 0xf5, 0xfb, 0xde, 0x20,
  0xd8, 0x2a, 0xf1, 0x28, 0x12, 0x13, 0x13, 0xd9, 0x24, 0xd1, 0xdd, 0xfa,
  0x58, 0x98, 0x09, 0xc4, 0xc0, 0x21, 0x07, 0xc6, 0xf0, 0xe2, 0xd2, 0xd8,
  0x1e, 0x4d, 0x2e, 0xba, 0x3e, 0xbf, 0xcb, 0x02, 0xc8, 0x13, 0x10, 0x33,
  0xff, 0xcc, 0x1a, 0xd2, 0x39, 0x11, 0x18, 0x12, 0xb3, 0xef, 0x02, 0xbe,
  0xd6, 0xe3, 0x1f, 0x1d, 0x21, 0xd7, 0xd3, 0xfe, 0xb5, 0xf4, 0x16, 0x11,
  0xe4, 0x29, 0xa9, 0xd7, 0x14, 0x3b, 0x10, 0x2b, 0xd8, 0x00, 0x29, 0x15,
  0x07, 0xdd, 0x0a, 0xe7, 0xf6, 0x58, 0xeb, 0x3d, 0xdc, 0x13, 0xf2, 0xbc,
  0xcb, 0x04, 0x24, 0x31, 0xc9, 0xf2, 0xd6, 0x0e, 0xb2, 0xb7, 0xfb, 0x08,
  0x03, 0x3a, 0xd9, 0x0e, 0x01, 0x13, 0xea, 0xf4, 0x1c, 0xa0, 0x27, 0x1a,
  0x25, 0xf4, 0xf3, 0x2e, 0x8a, 0x0a, 0xf8, 0x25, 0xe6, 0xd0, 0xfa, 0xce,
  0x08, 0x2c, 0x06, 0x25, 0xf4, 0x93, 0x0c, 0x1c, 0xc0, 0xe9, 0x06, 0xcf,
  0x3c, 0xf2, 0xb7, 0x04, 0x09, 0x24, 0xc1, 0xfa, 0x3f, 0x22, 0x40, 0xe9,
  0xed, 0xf7, 0xbc, 0xe3, 0x4b, 0x35, 0xd1, 0xe9, 0xfe, 0x2a, 0xc7, 0xda,
  0x09, 0x58, 0x9f, 0xf7, 0x45, 0xaf, 0x03, 0x4a, 0xfe, 0x35, 0x1c, 0xed,
  0xd5, 0xed, 0x62, 0x16, 0x42, 0x0c, 0x18, 0xc7, 0xe6, 0xee, 0xee, 0xd4,
  0x0f, 0xb1, 0x7f, 0xce, 0xc4, 0x14, 0xfe, 0xf0, 0xcf, 0xe8, 0xf2, 0xee,
  0xf2, 0x01, 0x12, 0xd8, 0xda, 0xf5, 0xad, 0xea, 0xde, 0x06, 0x44, 0x3a,
  0xe3, 0x34, 0x08, 0xfc, 0xe6, 0x09, 0xf8, 0xf2, 0x03, 0x47, 0xc0, 0x20,
  0x21, 0xba, 0xe5, 0x0d, 0xdc, 0xd2, 0xed, 0xee, 0x1a, 0x26, 0x0a, 0xf0,
  0xcd, 0xf2, 0xd5, 0xf3, 0xff, 0xd0, 0x3d, 0xe7, 0x0c, 0xda, 0xe4, 0x03,
  0x49, 0x14, 0xe7, 0x0f, 0xc6, 0x12, 0x3b, 0x1f, 0x1c, 0x2a, 0x3e, 0xeb,
  0xe8, 0xe1, 0x0e, 0xea, 0x00, 0xe5, 0xf0, 0xad, 0xce, 0xf3, 0x12, 0x2f,
  0x57, 0xea, 0xe0, 0x0d, 0x01, 0x1b, 0x35, 0xeb, 0x2e, 0x2a, 0xef, 0x0a,
  0x10, 0x0c, 0x14, 0x09, 0xe7, 0x3e, 0xe1, 0x29, 0x0f, 0x23, 0x0f, 0xfb,
  0x12, 0x10, 0xbd, 0xd4, 0x1f, 0x26, 0xc2, 0x02, 0x0a, 0x11, 0x0e, 0x17,
  0xf2, 0x11, 0xd6, 0x12, 0xff, 0x06, 0xd5, 0x05, 0xd5, 0x0c, 0x1e, 0x0a,
  0xc1, 0xd2, 0xf2, 0xf1, 0x18, 0x34, 0x2a, 0xdf, 0x24, 0x0c, 0x08, 0xb5,
  0x49, 0x26, 0xf8, 0x14, 0xbe, 0xcb, 0xdd, 0xc7, 0xf0, 0x09, 0x12, 0xe5,
  0x7f, 0xd6, 0xf7, 0x1d, 0x0f, 0xf1, 0x23, 0x28, 0x08, 0x09, 0x0b, 0x06,
  0x06, 0xe4, 0x10, 0x11, 0xea, 0xf5, 0x03, 0x15, 0xc2, 0x3b, 0xf4, 0x0e,
  0xf5, 0x15, 0xf6, 0xf8, 0x27, 0xed, 0xf0, 0xec, 0x28, 0x18, 0xe1, 0x45,
  0x07, 0x25, 0xf1, 0x4f, 0x10, 0x11, 0x05, 0xcd, 0x0f, 0xcc, 0x05, 0x17,
  0xe6, 0xd9, 0xf9, 0xd2, 0xde, 0xf4, 0x07, 0xe3, 0xf7, 0xfb, 0xf5, 0xc0,
  0x0b, 0x00, 0x0d, 0xef, 0x08, 0x11, 0x12, 0x36, 0x0f, 0xed, 0x03, 0xf8,
  0x5a, 0xe9, 0x01, 0x58, 0x2e, 0x0d, 0x39, 0x22, 0x12, 0x12, 0xf1, 0x0b,
  0xfe, 0xf3, 0xd6, 0x1c, 0x0b, 0x03, 0x3b, 0xf4, 0x3c, 0xde, 0xdd, 0x3a,
  0x4f, 0xe7, 0xfe, 0xf0, 0xea, 0x23, 0xec, 0xf4, 0x4a, 0xde, 0x15, 0x0f,
  0x0e, 0x13, 0xbf, 0xc8, 0x29, 0x14, 0x23, 0xe4, 0xd6, 0x36, 0xf3, 0x14,
  0x25, 0xe2, 0x23, 0xff, 0xf7, 0xea, 0x02, 0x06, 0x4e, 0xec, 0x12, 0xe6,
  0xd2, 0x08, 0x06, 0x0d, 0xf1, 0xd4, 0x3b, 0xff, 0x09, 0xea, 0x13, 0xd7,
  0xcf, 0x1b, 0xe0, 0x02, 0x1d, 0xea, 0x08, 0xf5, 0xed, 0x05, 0xe2, 0xde,
  0xf4, 0xe2, 0x24, 0xf1, 0x36, 0x3d, 0xc7, 0x0d, 0x0d, 0x3a, 0x0c, 0x04,
  0x03, 0xe1, 0xe6, 0x14, 0xf9, 0x30, 0xed, 0x2a, 0xdb, 0x1e, 0xe9, 0xfc,
  0x1c, 0x28, 0x11, 0xeb, 0x12, 0x0e, 0x15, 0xef, 0x08, 0xe8, 0x0b, 0xf6,
  0x57, 0xfd, 0x11, 0x05, 0x17, 0xdf, 0xe9, 0x0c, 0xec, 0x1b, 0xfb, 0x5c,
  0x18, 0xe2, 0x07, 0xdc, 0x0b, 0xf4, 0xe5, 0xc4, 0xe9, 0x35, 0x01, 0x0b,
  0x25, 0x16, 0x39, 0x1c, 0x31, 0xfa, 0xf8, 0xfe, 0x11, 0x0b, 0x03, 0xe9,
  0xf7, 0x27, 0x14, 0xc6, 0xe6, 0x1e, 0x1e, 0x1a, 0x33, 0x17, 0x0d, 0xe2,
  0xd4, 0x14, 0xe0, 0xa8, 0x32, 0xf8, 0x10, 0x1a, 0x05, 0xe4, 0x08, 0xac,
  0xf5, 0x13, 0xe7, 0x17, 0xc0, 0xfe, 0x04, 0xea, 0x07, 0x14, 0x3d, 0x1d,
  0x26, 0x40, 0xfd, 0x01, 0x0b, 0x09, 0x01, 0xfd, 0x2c, 0xf3, 0xcb, 0x34,
  0xe2, 0x1f, 0xdd, 0xfa, 0xf0, 0x10, 0xf9, 0x1c, 0xcf, 0x1d, 0xbe, 0x25,
  0xdc, 0xda, 0xe5, 0x4a, 0xe6, 0xda, 0x32, 0x0c, 0xc6, 0x11, 0x09, 0x24,
  0x04, 0x14, 0xc6, 0x0b, 0xe0, 0xff, 0xe0, 0xeb, 0x18, 0xfe, 0xc4, 0x03,
  0x10, 0x01, 0x21, 0xc1, 0x18, 0x30, 0xc6, 0x03, 0xdd, 0x16, 0x0f, 0xe7,
  0x1c, 0xed, 0x18, 0x26, 0x09, 0x21, 0x0c, 0xea, 0x45, 0xfa, 0x0d, 0x00,
  0xc0, 0x1f, 0xbf, 0xeb, 0x24, 0x13, 0x15, 0x2a, 0x0f, 0xd8, 0xea, 0x0d,
  0xf0, 0xe8, 0xfc, 0x08, 0x34, 0x0d, 0xd2, 0xf3, 0xfb, 0xe5, 0x30, 0x33,
  0xf6, 0x12, 0xfc, 0xfd, 0x2a, 0xf9, 0xfc, 0xd8, 0xe7, 0x1c, 0x13, 0x0a,
  0xc5, 0xfb, 0xe6, 0x09, 0xec, 0x00, 0xc7, 0x23, 0x0a, 0xcf, 0x11, 0x0a,
  0x16, 0x15, 0xed, 0xe9, 0xe6, 0x0c, 0x34, 0xd8, 0xd6, 0x08, 0xfc, 0x1c,
  0xfc, 0x28, 0x01, 0xe2, 0xec, 0x07, 0xe7, 0xb7, 0xe0, 0xe4, 0xf3, 0x14,
  0xe4, 0x09, 0xed, 0x2b, 0x1d, 0xf2, 0xeb, 0xe9, 0xe0, 0x08, 0xe5, 0x0a,
  0xf9, 0xf4, 0xf0, 0xf5, 0xf2, 0x18, 0xe1, 0x12, 0xe3, 0xea, 0xe9, 0x17,
  0xf9, 0xff, 0xfc, 0x48, 0xed, 0xe9, 0x07, 0x05, 0x35, 0xcc, 0xf1, 0xec,
  0x05, 0x2c, 0x3e, 0x37, 0xf8, 0x24, 0xdc, 0xe3, 0xee, 0x1a, 0x37, 0x24,
  0xfd, 0x14, 0x39, 0xdf, 0xd8, 0xf6, 0xef, 0x05, 0xe8, 0x0b, 0xeb, 0xf4,
  0x08, 0x15, 0x04, 0x2b, 0xc2, 0x0b, 0xfb, 0xed, 0x0b, 0xfe, 0x14, 0x00,
  0xb4, 0x27, 0xde, 0xd0, 0x0c, 0x18, 0x3d, 0x1e, 0xf5, 0xfb, 0x2f, 0xce,
  0xd6, 0x04, 0x12, 0x38, 0xd7, 0x15, 0xe1, 0x02, 0xd8, 0x2b, 0xf0, 0xe9,
  0xfa, 0x1a, 0xe0, 0xbd, 0xff, 0x23, 0x02, 0x26, 0x50, 0xf7, 0x17, 0x15,
  0xf5, 0xfc, 0x17, 0x28, 0xe5, 0x23, 0x02, 0xf2, 0x0d, 0x0a, 0x05, 0x45,
  0x37, 0x03, 0xee, 0xef, 0x16, 0xe1, 0x11, 0x05, 0x38, 0x29, 0x27, 0xf7,
  0x1f, 0x3a, 0xd0, 0x07, 0xfe, 0x2d, 0x0e, 0x13, 0x0a, 0xd7, 0xe3, 0xf8,
  0xec, 0x02, 0x1c, 0x1f, 0x06, 0x1b, 0xb5, 0x0c, 0xf3, 0x00, 0xd1, 0xed,
  0x3a, 0x0f, 0xcb, 0xde, 0xe8, 0xe0, 0xf9, 0xfd, 0xdb, 0x02, 0xfd, 0xf6,
  0x49, 0x06, 0x37, 0xeb, 0x22, 0xfe, 0x12, 0x35, 0x3c, 0x44, 0xee, 0x23,
  0x56, 0xda, 0x17, 0x0a, 0x3f, 0x1a, 0xe4, 0xf6, 0x06, 0xef, 0xaf, 0x2c,
  0x08, 0xef, 0xd2, 0x36, 0xa7, 0xf7, 0xe0, 0x05, 0xfa, 0x01, 0xba, 0x0e,
  0xef, 0xce, 0xa4, 0xe3, 0xf8, 0x36, 0xe2, 0xb4, 0xcc, 0x34, 0xef, 0xe7,
  0xeb, 0xed, 0x22, 0x18, 0x1c, 0xf6, 0xa5, 0xb0, 0x3b, 0x21, 0x09, 0xee,
  0x24, 0xb6, 0xb4, 0x06, 0xe9, 0x03, 0xe8, 0x1f, 0xd0, 0xab, 0xf6, 0x0d,
  0xfb, 0xef, 0x2c, 0x0a, 0xd5, 0xf6, 0x0a, 0x1e, 0x36, 0xb5, 0x18, 0x39,
  0xbd, 0x40, 0xd7, 0xe0, 0xd1, 0xe2, 0x0b, 0xe3, 0x15, 0xe1, 0xfe, 0x47,
  0x07, 0x11, 0xc5, 0x00, 0x0b, 0x3b, 0xd5, 0xe2, 0xfa, 0x5b, 0x08, 0x29,
  0x0a, 0x07, 0x02, 0x2c, 0xaf, 0xf4, 0x99, 0xdb, 0xc9, 0x03, 0x03, 0x08,
  0x06, 0x44, 0x4e, 0xcf, 0xc1, 0x3c, 0x08, 0x9e, 0x66, 0xf6, 0x0a, 0xa8,
  0xd4, 0xe2, 0x2f, 0x9f, 0xc9, 0x56, 0x0c, 0x04, 0xf7, 0x0c, 0x17, 0x30,
  0xd3, 0xf5, 0xd6, 0x08, 0x32, 0xe3, 0x02, 0x27, 0xae, 0xd4, 0xf3, 0x1e,
  0x0a, 0x0f, 0xf5, 0xb2, 0xb5, 0xd8, 0xf7, 0xd2, 0xc5, 0xeb, 0x11, 0xd9,
  0xd1, 0x05, 0x2c, 0xeb, 0x01, 0xf6, 0xda, 0xe0, 0xec, 0xfa, 0xf4, 0xd7,
  0xc5, 0xc2, 0xf6, 0x03, 0xf6, 0x2e, 0xd1, 0xd3, 0xd7, 0xf6, 0xde, 0x05,
  0x17, 0x0c, 0x01, 0xf8, 0xd3, 0x20, 0xc6, 0x0f, 0xba, 0xb5, 0xe3, 0x2f,
  0xc4, 0xe9, 0x18, 0x12, 0xd2, 0xec, 0xa5, 0x06, 0xb2, 0xdf, 0xf2, 0x94,
  0xc3, 0x19, 0xe6, 0x17, 0xfe, 0xaa, 0x53, 0xf7, 0xed, 0x14, 0xda, 0x1a,
  0x0f, 0xc5, 0xf2, 0x02, 0xf1, 0x1a, 0x09, 0xdc, 0x04, 0xe6, 0x8d, 0xb7,
  0xd5, 0x1b, 0xbe, 0xf0, 0x0d, 0x37, 0xcc, 0xe3, 0xbc, 0xff, 0xce, 0x29,
  0xae, 0x1c, 0xc8, 0xde, 0xd3, 0xc9, 0x0c, 0xbe, 0xff, 0xd4, 0x01, 0x14,
  0x0b, 0xc5, 0xe7, 0xd1, 0xce, 0xd4, 0xe8, 0x09, 0xf7, 0x3f, 0x20, 0x12,
  0x23, 0x06, 0x17, 0x65, 0xef, 0xd3, 0x3a, 0xc9, 0xfe, 0xdc, 0x30, 0x00,
  0xc5, 0x42, 0xdc, 0xe3, 0xeb, 0xfb, 0x17, 0xe7, 0xf5, 0x5c, 0xd5, 0x06,
  0x11, 0x5f, 0x10, 0xec, 0x3b, 0x2a, 0x32, 0x06, 0x08, 0x26, 0xb5, 0x26,
  0x20, 0xcd, 0x53, 0xc9, 0x23, 0x64, 0xa1, 0xfd, 0xe9, 0xd1, 0x28, 0xda,
  0x9b, 0xdc, 0xb2, 0x24, 0xdd, 0xdb, 0x2a, 0xaa, 0xe0, 0xdb, 0x8b, 0x1a,
  0x14, 0x1a, 0xe7, 0x11, 0x27, 0xea, 0x13, 0xce, 0xd1, 0x22, 0x06, 0x25,
  0xaa, 0x01, 0xfa, 0xf3, 0x02, 0x30, 0xfb, 0xd1, 0x1a, 0x14, 0x84, 0xdf,
  0x27, 0x11, 0xce, 0xa9, 0xd9, 0x1b, 0xcd, 0x0c, 0x4c, 0xef, 0x0b, 0xc4,
  0xa7, 0xbb, 0x94, 0x4a, 0x01, 0xf5, 0xd2, 0xdb, 0xe6, 0xd1, 0xd9, 0xe9,
  0x05, 0xe9, 0x05, 0xfd, 0x24, 0x20, 0x10, 0x40, 0x81, 0xec, 0x41, 0xfe,
  0x1b, 0x38, 0xa5, 0x1d, 0xe2, 0xdb, 0x30, 0x03, 0x1b, 0x0f, 0x24, 0xdf,
  0xe6, 0x15, 0x24, 0xed, 0xef, 0x25, 0x2a, 0x26, 0x1a, 0xc2, 0xea, 0x06,
  0xe1, 0xc7, 0xd3, 0x0c, 0xbe, 0xf6, 0xf5, 0xd7, 0x42, 0x27, 0x00, 0x20,
  0x29, 0xc2, 0x2b, 0xaa, 0xf2, 0x09, 0xf9, 0xc0, 0xa6, 0xd0, 0x30, 0xcf,
  0xca, 0x21, 0xd8, 0x1f, 0xef, 0x16, 0xef, 0x3c, 0xf0, 0x10, 0x0d, 0x0a,
  0xa4, 0x13, 0xe3, 0xb5, 0xde, 0x2b, 0x2a, 0x25, 0xe8, 0x26, 0xd1, 0xe2,
  0xb5, 0x03, 0x09, 0xe4, 0x87, 0x56, 0xdd, 0x1c, 0x4a, 0x3f, 0x8e, 0xfd,
  0x0d, 0x17, 0x03, 0xd2, 0x2a, 0xc0, 0x29, 0x1e, 0x2c, 0xdb, 0x0c, 0xe9,
  0x33, 0x51, 0xe5, 0x41, 0x05, 0x05, 0x15, 0xdc, 0xdc, 0xcd, 0x35, 0x14,
  0x02, 0xec, 0xd8, 0xfe, 0x15, 0x23, 0x30, 0xda, 0x93, 0xf1, 0xdd, 0xe3,
  0x0b, 0xf5, 0x27, 0xb3, 0xf7, 0x15, 0xfd, 0xd2, 0xd3, 0x06, 0xd3, 0x1d,
  0xe5, 0x1b, 0x0c, 0x00, 0x64, 0xfa, 0x05, 0x23, 0x1f, 0x1c, 0xcd, 0x13,
  0x85, 0xf4, 0x09, 0x0f, 0xec, 0xd4, 0x4c, 0xd9, 0x41, 0xfb, 0xfb, 0xd9,
  0xe9, 0x15, 0x10, 0xc3, 0x3d, 0xfd, 0x1c, 0xdd, 0x26, 0xe4, 0x28, 0xcf,
  0xe1, 0x35, 0xe0, 0x31, 0xa4, 0xd6, 0xd4, 0xe7, 0x3a, 0xf6, 0xab, 0x09,
  0x03, 0x43, 0xfb, 0x96, 0x1e, 0x2e, 0x0a, 0xb1, 0x18, 0xda, 0xfc, 0x38,
  0x12, 0x04, 0xd5, 0xf9, 0xd9, 0xba, 0xf0, 0xf8, 0x00, 0x0a, 0xc1, 0x0b,
  0x19, 0xe3, 0xf7, 0xd6, 0x05, 0xde, 0xfd, 0x20, 0xeb, 0x1f, 0x15, 0x0e,
  0xfe, 0xc8, 0xd3, 0xbd, 0x18, 0xc2, 0xf1, 0xf3, 0xd1, 0x4b, 0xc9, 0x2e,
  0xe4, 0x3f, 0x2b, 0xc8, 0xf0, 0x0d, 0x18, 0xe4, 0x2f, 0x31, 0x04, 0xf8,
  0xf0, 0x10, 0x0e, 0xe8, 0x09, 0xf5, 0xc3, 0xf3, 0xd2, 0xe8, 0xed, 0xf4,
  0xd6, 0x07, 0xc0, 0x03, 0xdd, 0x38, 0xe8, 0xe3, 0x0e, 0x0a, 0xd3, 0xf3,
  0xef, 0xe7, 0xeb, 0xde, 0x07, 0xe0, 0xdc, 0xdd, 0xf6, 0x1d, 0xf3, 0xc7,
  0xdf, 0xa8, 0xe5, 0xf6, 0xf2, 0xea, 0x0c, 0x1b, 0xc7, 0xd1, 0xc3, 0x02,
  0x13, 0xb5, 0xf1, 0x23, 0xf1, 0x32, 0xee, 0xd0, 0x07, 0xfe, 0x41, 0x0d,
  0xc3, 0xcc, 0x02, 0x18, 0x2a, 0x22, 0xd9, 0xd3, 0xed, 0xf2, 0x11, 0xe6,
  0xe0, 0x18, 0xf6, 0x0c, 0x81, 0x15, 0x0a, 0xf7, 0x40, 0xe3, 0xe0, 0xf9,
  0xdc, 0xda, 0x21, 0xfb, 0xe7, 0xda, 0xbd, 0xd9, 0xcf, 0x0a, 0x21, 0xd4,
  0x01, 0xd6, 0x0e, 0x31, 0xa9, 0x00, 0xd6, 0xd1, 0xe4, 0x0c, 0xaa, 0xf7,
  0x21, 0x33, 0x15, 0xfc, 0x11, 0x2c, 0xfb, 0x07, 0xe2, 0x05, 0xcc, 0xe4,
  0xda, 0x34, 0xf5, 0x0f, 0xb4, 0x3e, 0xf4, 0x17, 0xe9, 0x10, 0xba, 0x34,
  0xc0, 0xf4, 0xf2, 0x01, 0xdd, 0x22, 0xb5, 0xf5, 0xce, 0x03, 0x10, 0xc0,
  0x28, 0xee, 0xff, 0x11, 0x40, 0xd4, 0xe8, 0xf8, 0xe1, 0x11, 0xea, 0x17,
  0xcb, 0xf9, 0xf8, 0xf9, 0xd9, 0x16, 0x15, 0xeb, 0xc8, 0xff, 0xf8, 0xce,
  0x12, 0x1d, 0xe6, 0x05, 0x04, 0xca, 0xdd, 0x08, 0xb6, 0xf7, 0xf2, 0xf9,
  0x31, 0x10, 0x01, 0x13, 0xd5, 0xf3, 0xca, 0x1a, 0xf1, 0xee, 0xfc, 0x0f,
  0x09, 0x17, 0x98, 0x14, 0xfc, 0x19, 0x4d, 0xef, 0xf1, 0x00, 0xf1, 0xfc,
  0xea, 0x0a, 0xe6, 0xe2, 0x0c, 0x1b, 0xe7, 0x4f, 0x08, 0x0a, 0xc2, 0xba,
  0x15, 0x0e, 0xd5, 0x10, 0xde, 0x02, 0x1b, 0xb1, 0x05, 0x0f, 0xcd, 0xd3,
  0x1c, 0xde, 0xd5, 0xe2, 0xf9, 0xf9, 0xe0, 0xe4, 0xe8, 0xdb, 0x16, 0xe5,
  0xd6, 0xce, 0xc9, 0xf3, 0x20, 0x06, 0xf6, 0xc7, 0x07, 0xd4, 0xf0, 0xd3,
  0x22, 0xb7, 0x11, 0xf5, 0xeb, 0x02, 0xc5, 0xa0, 0x1f, 0xd5, 0xdf, 0x2e,
  0xee, 0x03, 0x04, 0x0b, 0x16, 0xfa, 0x23, 0x08, 0xed, 0x34, 0x07, 0x09,
  0x07, 0xf6, 0x19, 0xd1, 0xdf, 0x1e, 0xe8, 0x24, 0x12, 0xa2, 0x2e, 0xef,
  0x2c, 0x06, 0xf8, 0x02, 0x69, 0x05, 0x01, 0x0e, 0x14, 0x06, 0xe0, 0xe4,
  0x36, 0xfb, 0xd9, 0xd4, 0xf9, 0x01, 0xe4, 0xf1, 0x3c, 0x29, 0x11, 0x0d,
  0xf3, 0xd0, 0x28, 0xfe, 0x50, 0x09, 0x20, 0x09, 0xf8, 0x3e, 0xf5, 0xa9,
  0x12, 0xe0, 0x28, 0xf3, 0x1b, 0xd3, 0xe0, 0x00, 0xc8, 0xea, 0x49, 0x39,
  0xec, 0x0b, 0xc7, 0x13, 0x3f, 0x11, 0xe1, 0xd8, 0xcd, 0x2a, 0xbe, 0x05,
  0x29, 0x4b, 0x19, 0x05, 0xff, 0xff, 0xcd, 0xe8, 0xfd, 0x1e, 0x29, 0xf8,
  0xd1, 0x0a, 0xe4, 0x21, 0x4d, 0x08, 0x06, 0x20, 0x11, 0xfa, 0xdf, 0xed,
  0xd6, 0x22, 0xef, 0x2d, 0x2c, 0x13, 0xd9, 0x3c, 0x31, 0x24, 0xee, 0xea,
  0xf1, 0xe6, 0xcc, 0x29, 0x2e, 0x05, 0xef, 0x37, 0xdc, 0x12, 0x06, 0xf2,
  0x29, 0x40, 0xe9, 0xf7, 0xe8, 0x04, 0x20, 0x03, 0x55, 0x13, 0x01, 0x2d,
  0xec, 0x21, 0x48, 0x1c, 0xd4, 0x02, 0x2c, 0xd4, 0xf2, 0xcd, 0x33, 0x0f,
  0xef, 0x1f, 0xf6, 0x24, 0x1e, 0x34, 0xfb, 0x21, 0x46, 0x35, 0x1f, 0xca,
  0xf2, 0xfc, 0xeb, 0x0d, 0x28, 0xc6, 0xf0, 0x0d, 0x0b, 0xf6, 0x14, 0x1c,
  0xfe, 0x27, 0xcf, 0xd1, 0x18, 0xd5, 0x07, 0x0e, 0x1c, 0xde, 0xfe, 0xf9,
  0xf4, 0xba, 0x12, 0x3b, 0x07, 0x04, 0x27, 0xda, 0x20, 0xfd, 0x16, 0x4d,
  0xf7, 0x0a, 0xf9, 0x39, 0xf3, 0x26, 0x19, 0x21, 0xe9, 0x15, 0x2c, 0xf6,
  0xe1, 0xc0, 0x28, 0x0a, 0xfa, 0x21, 0xfe, 0x40, 0xe6, 0x39, 0x23, 0xf6,
  0x30, 0xcc, 0x30, 0x2b, 0xde, 0xeb, 0xb1, 0x27, 0xf2, 0x0f, 0x1c, 0x4d,
  0x10, 0x03, 0x26, 0x0c, 0x28, 0x05, 0xd1, 0xea, 0xdc, 0xf0, 0x31, 0x3a,
  0xf7, 0xeb, 0x1f, 0xd5, 0x43, 0x1b, 0x05, 0xfe, 0x39, 0xf7, 0x18, 0x0f,
  0x25, 0x19, 0x38, 0x1c, 0xe0, 0xe3, 0xde, 0x2e, 0xe3, 0x02, 0x52, 0x0a,
  0xf0, 0xf0, 0xf2, 0x38, 0x00, 0xfa, 0xd7, 0x0b, 0xe8, 0xfa, 0xef, 0xe1,
  0x07, 0xce, 0xe2, 0x00, 0x03, 0x2b, 0xd1, 0x07, 0x05, 0xff, 0x0e, 0x17,
  0xbd, 0xf6, 0x2c, 0x0e, 0xe9, 0xfa, 0x33, 0xdd, 0x07, 0x32, 0x4a, 0x1b,
  0x0f, 0x35, 0x2a, 0xd6, 0xf2, 0xf7, 0x15, 0x42, 0xe1, 0x1d, 0x35, 0xff,
  0x37, 0x34, 0x02, 0x1d, 0xdc, 0x3e, 0x1d, 0xd6, 0xfa, 0x10, 0x03, 0x12,
  0xde, 0x25, 0x26, 0x4f, 0x03, 0xf1, 0xfc, 0x49, 0xd2, 0x01, 0x39, 0x26,
  0xdc, 0x35, 0xf7, 0x1c, 0x34, 0x31, 0x1b, 0xfd, 0x22, 0x04, 0x01, 0x0d,
  0x22, 0x24, 0x1d, 0xd7, 0xdb, 0x05, 0x06, 0x22, 0xd2, 0x1b, 0x28, 0xf7,
  0xd1, 0xec, 0xd1, 0x18, 0xe3, 0x04, 0xf3, 0x31, 0x09, 0x26, 0xb8, 0xf5,
  0x07, 0xc3, 0xd2, 0x12, 0xf3, 0xed, 0x07, 0xf2, 0xfa, 0xed, 0xe1, 0xee,
  0xf7, 0x1e, 0xe5, 0xa6, 0x34, 0x14, 0x04, 0x19, 0x25, 0xcf, 0xee, 0x20,
  0xdf, 0xb9, 0x1d, 0x0b, 0xe0, 0xf3, 0x34, 0x10, 0xd7, 0xf1, 0xca, 0xeb,
  0xe1, 0x41, 0x1f, 0x0f, 0x3d, 0xe8, 0xf3, 0xc4, 0x19, 0x0e, 0xf8, 0xe9,
  0xe2, 0xdc, 0xf2, 0xe6, 0xf4, 0xba, 0xfb, 0xb6, 0x11, 0xe3, 0xe6, 0x0d,
  0x8d, 0xef, 0xf2, 0xde, 0xca, 0xfe, 0x2c, 0xf1, 0xe7, 0x0a, 0xdf, 0x0a,
  0x01, 0x14, 0xe4, 0x0a, 0xdf, 0x2b, 0x9e, 0x0c, 0xd8, 0x35, 0xb2, 0xe2,
  0x26, 0x40, 0xf3, 0xdd, 0x18, 0x09, 0xca, 0x29, 0x68, 0x36, 0x2a, 0xfa,
  0xcd, 0xf8, 0xe9, 0x10, 0x36, 0xef, 0xf4, 0xed, 0x34, 0xc0, 0xd6, 0xfb,
  0xf6, 0x3f, 0xa6, 0xdd, 0x2f, 0xda, 0xce, 0x42, 0x26, 0xd4, 0xdc, 0x18,
  0x1a, 0xfe, 0x31, 0x05, 0xf6, 0x05, 0xff, 0x13, 0x2a, 0xfd, 0x4d, 0x22,
  0xd3, 0x36, 0x28, 0xf7, 0xff, 0x2d, 0x0a, 0x4a, 0xde, 0x16, 0xfa, 0x0e,
  0xee, 0xfc, 0xd7, 0x04, 0xe1, 0xfa, 0xae, 0x30, 0xe2, 0x10, 0xd7, 0xf2,
  0xd9, 0x47, 0xd3, 0xc1, 0xb7, 0x0c, 0xd3, 0xdf, 0x10, 0x13, 0x02, 0x27,
  0xeb, 0xf7, 0xdf, 0xd5, 0x23, 0xdf, 0x31, 0xd0, 0xe6, 0xfd, 0xd0, 0xf2,
  0x19, 0xef, 0xeb, 0xee, 0x0f, 0xbf, 0x1b, 0xfe, 0xe4, 0xee, 0xe8, 0x0a,
  0xfa, 0xf2, 0x34, 0xda, 0x9c, 0xe4, 0xbd, 0xf4, 0xbb, 0x59, 0xf5, 0xf9,
  0x11, 0x01, 0x18, 0xdd, 0x2f, 0xe2, 0x1f, 0x26, 0x0b, 0xd6, 0xd7, 0x10,
  0x30, 0xef, 0xd1, 0xe8, 0xbb, 0x3c, 0xe9, 0x0d, 0x00, 0xdb, 0x06, 0xf2,
  0xdb, 0x24, 0x10, 0xdc, 0x28, 0xce, 0xb4, 0xe9, 0xfc, 0xcc, 0x24, 0x22,
  0x1e, 0xa9, 0xeb, 0xf8, 0xd6, 0x15, 0xc6, 0xcd, 0xda, 0x0d, 0xcc, 0x1d,
  0xb6, 0xe7, 0x15, 0x05, 0x0e, 0xf9, 0x0e, 0xd5, 0xb3, 0x27, 0x27, 0x2b,
  0xc2, 0xd7, 0xd8, 0xbf, 0xd6, 0x0b, 0x19, 0xc2, 0xfc, 0xfa, 0x35, 0xd2,
  0xa3, 0x32, 0xeb, 0x58, 0xd7, 0x52, 0x1c, 0x9b, 0xee, 0x18, 0x3e, 0x1b,
  0x0f, 0xcb, 0xc0, 0xcb, 0xdd, 0x01, 0xde, 0x00, 0xc1, 0x2f, 0x01, 0x02,
  0xd9, 0xef, 0xf3, 0xc6, 0xdd, 0x41, 0x10, 0x1c, 0xc3, 0xe3, 0x0a, 0xe4,
  0x34, 0x2b, 0xee, 0x3e, 0xe4, 0xf5, 0xe2, 0x1d, 0xf4, 0xc9, 0xc4, 0xf4,
  0xe6, 0xac, 0xa3, 0xec, 0x43, 0x5f, 0xc6, 0x10, 0xe2, 0x1d, 0xd6, 0xaf,
  0x24, 0x1a, 0xeb, 0xe8, 0xdd, 0x2a, 0xd2, 0x23, 0x27, 0x51, 0x42, 0xdf,
  0x10, 0x19, 0xde, 0xcf, 0xdd, 0x2e, 0x16, 0xfb, 0x06, 0xd8, 0x03, 0xab,
  0xe4, 0x19, 0xed, 0x1c, 0xbf, 0x0f, 0xff, 0xfa, 0xcb, 0x2d, 0xce, 0xe3,
  0xe6, 0x12, 0x08, 0xe7, 0xe7, 0x0a, 0x1a, 0xe6, 0xf7, 0xd4, 0xd3, 0xef,
  0xed, 0xe2, 0xb9, 0xc7, 0xd8, 0xf5, 0xe2, 0x1f, 0xe8, 0xe8, 0xfd, 0xec,
  0x0b, 0xce, 0x00, 0xf1, 0x04, 0xfb, 0x13, 0xb8, 0xfe, 0x21, 0xd0, 0xba,
  0xf6, 0x2a, 0x10, 0xeb, 0x05, 0x0c, 0x20, 0xde, 0xf7, 0x2d, 0xfc, 0x23,
  0x17, 0x52, 0xc1, 0xca, 0x00, 0x0b, 0xff, 0xe7, 0x08, 0xf5, 0x1a, 0x20,
  0xc0, 0x01, 0xf1, 0xe6, 0x0e, 0xda, 0x12, 0xde, 0xca, 0x43, 0x0d, 0xe7,
  0xe2, 0x19, 0x1b, 0xe0, 0xc3, 0x0b, 0xea, 0xfb, 0x25, 0xb7, 0x0f, 0xe5,
  0x22, 0x13, 0xeb, 0x9b, 0xc5, 0xc0, 0x12, 0xdf, 0xf9, 0xfb, 0xba, 0xb2,
  0xf9, 0x1c, 0xff, 0x0f, 0x07, 0x2e, 0x2f, 0x30, 0x16, 0x08, 0x10, 0xc8,
  0x04, 0x2c, 0xfe, 0xc1, 0xd0, 0xd0, 0xef, 0xb2, 0x48, 0xf7, 0xc2, 0xcc,
  0x14, 0xd9, 0xdd, 0xf1, 0x0b, 0x03, 0xe1, 0xf6, 0xe9, 0xf5, 0x57, 0x28,
  0xdc, 0xff, 0xba, 0xfe, 0xeb, 0x3f, 0xbb, 0xe2, 0xde, 0x6a, 0xcf, 0xa8,
  0x07, 0x14, 0xfe, 0x0d, 0xdd, 0x1a, 0xc6, 0xb8, 0xda, 0xf2, 0xf6, 0xf3,
  0xe3, 0xe9, 0x03, 0x02, 0xe4, 0xfc, 0xe2, 0xc9, 0x4e, 0x01, 0x00, 0xbb,
  0xed, 0xeb, 0x29, 0xf9, 0x25, 0xef, 0x81, 0x04, 0xea, 0x02, 0x47, 0xda,
  0xbc, 0xdf, 0xf9, 0x22, 0xc2, 0xd7, 0x2e, 0x04, 0x10, 0xf5, 0x4b, 0x09,
  0xf7, 0x17, 0xf0, 0xaf, 0xaa, 0xf2, 0xde, 0xd7, 0x31, 0xc6, 0xfa, 0x12,
  0xf8, 0xd5, 0xe4, 0xd7, 0x1c, 0xfc, 0x02, 0xcc, 0x46, 0xc8, 0xf8, 0xba,
  0x1b, 0x03, 0x10, 0xdc, 0xdb, 0x0a, 0xd1, 0xd1, 0x05, 0xf7, 0xe4, 0xe2,
  0x26, 0xd2, 0xb4, 0xc4, 0xcc, 0xee, 0x1f, 0xfb, 0xff, 0x0b, 0xca, 0xb0,
  0xef, 0xca, 0xd6, 0xc2, 0x2b, 0x00, 0xee, 0xfc, 0xd0, 0xdb, 0x0e, 0xb1,
  0xec, 0x1a, 0xdf, 0xc6, 0xc3, 0xd3, 0xce, 0xf1, 0x35, 0xb6, 0x26, 0xf7,
  0xfd, 0xe2, 0x3e, 0xeb, 0xb9, 0x06, 0xe0, 0xf7, 0xf0, 0xce, 0xc8, 0x12,
  0xd7, 0xe8, 0x0c, 0x24, 0x0d, 0xde, 0x12, 0xd0, 0xc6, 0xee, 0xb1, 0x0c,
  0xf6, 0xc8, 0xf4, 0xad, 0x12, 0x20, 0xf6, 0x41, 0xe4, 0x2e, 0x42, 0xf7,
  0x07, 0xff, 0x17, 0x3e, 0xc9, 0x38, 0x06, 0x29, 0xb9, 0xfd, 0xee, 0x2e,
  0xb8, 0xda, 0xea, 0xed, 0x10, 0xf2, 0x35, 0xcf, 0xda, 0x00, 0x1f, 0xf2,
  0x18, 0x1c, 0x0d, 0xe1, 0x04, 0xf4, 0x1f, 0x00, 0x00, 0x1f, 0x3d, 0x9e,
  0xca, 0x22, 0x29, 0xfa, 0xef, 0x02, 0xcf, 0xea, 0xce, 0xdc, 0x2e, 0x3c,
  0xe8, 0x25, 0x0a, 0x07, 0xd5, 0x15, 0xf9, 0x09, 0xf3, 0x18, 0xf4, 0x1e,
  0x0e, 0x1e, 0xea, 0x0c, 0x22, 0x05, 0x13, 0x06, 0xef, 0x07, 0x13, 0x25,
  0xec, 0x32, 0x04, 0x16, 0x12, 0xbb, 0xe7, 0xea, 0x07, 0xfb, 0x33, 0xaa,
  0xfc, 0x13, 0x33, 0x40, 0xd3, 0x1e, 0xc0, 0xf1, 0xc8, 0x05, 0x27, 0xdf,
  0xdb, 0xe8, 0x0e, 0xe4, 0x14, 0x0a, 0x2c, 0xfb, 0xac, 0x4d, 0x2c, 0xf0,
  0xf2, 0xbe, 0x04, 0xdb, 0x24, 0x3a, 0x33, 0x06, 0xbf, 0xee, 0x15, 0xdd,
  0xc0, 0x18, 0xd0, 0xd4, 0xe8, 0x18, 0xe7, 0xfd, 0x0e, 0x21, 0x05, 0x28,
  0x81, 0x19, 0x14, 0xed, 0x2c, 0x56, 0xec, 0xb7, 0xd2, 0xd6, 0x0a, 0xeb,
  0x16, 0x13, 0xbf, 0xcc, 0xf8, 0x1e, 0xe8, 0x12, 0x4d, 0xef, 0x37, 0x14,
  0x35, 0x08, 0x38, 0xdf, 0x3e, 0x22, 0xf6, 0xd7, 0xe7, 0xbc, 0x19, 0x06,
  0x17, 0xa9, 0xd7, 0xb9, 0x19, 0xfa, 0x11, 0xa6, 0xe7, 0xe6, 0xc8, 0xfa,
  0x2a, 0x0d, 0x00, 0x34, 0x07, 0xc7, 0xc0, 0xd7, 0x55, 0xcc, 0x26, 0x12,
  0xec, 0xe9, 0xff, 0xde, 0xe5, 0xb0, 0xc3, 0xfb, 0x0b, 0xce, 0x39, 0xdb,
  0x04, 0xc6, 0xd9, 0xe2, 0xce, 0xc6, 0xff, 0x0d, 0xc6, 0x45, 0x13, 0x04,
  0xef, 0xe0, 0x16, 0xf3, 0xc2, 0x24, 0x1f, 0xb9, 0x95, 0xc5, 0x40, 0xe9,
  0xdc, 0x03, 0x09, 0x04, 0xe5, 0xc6, 0x17, 0xaf, 0xf0, 0xb3, 0x11, 0xe7,
  0x13, 0xbd, 0xb4, 0xf0, 0x0c, 0xc1, 0x95, 0xde, 0xcf, 0xc0, 0xac, 0xd4,
  0xcb, 0xbe, 0xd8, 0x17, 0x04, 0x01, 0xb7, 0x08, 0xe9, 0xec, 0xe1, 0xd3,
  0x01, 0xe7, 0x04, 0x1d, 0xe9, 0x2c, 0x0a, 0xf8, 0x39, 0xb8, 0xa0, 0x43,
  0xef, 0x2c, 0x41, 0x1e, 0xc4, 0xf3, 0xdb, 0x02, 0xd9, 0xf2, 0x16, 0xfa,
  0x31, 0x00, 0x13, 0xe4, 0x94, 0x1e, 0x20, 0x12, 0xfa, 0xc3, 0xce, 0x25,
  0x0c, 0xd4, 0x24, 0xd2, 0xf0, 0x23, 0x0a, 0xd9, 0xe8, 0x1d, 0x1e, 0xa9,
  0xfb, 0xc7, 0xd7, 0x9f, 0xc3, 0x57, 0x02, 0x12, 0x29, 0xd5, 0x15, 0xf6,
  0xe7, 0xdd, 0xd4, 0x43, 0x5a, 0x28, 0xf1, 0xf7, 0x20, 0x15, 0x69, 0xf8,
  0x2c, 0x38, 0xc1, 0xe5, 0x18, 0x1f, 0xbd, 0xb7, 0x1c, 0xda, 0xf9, 0x07,
  0xe9, 0x13, 0x1b, 0x38, 0xf7, 0xd5, 0xcf, 0xf1, 0x31, 0xf4, 0x21, 0x28,
  0xfa, 0xe2, 0xec, 0x91, 0xc7, 0x33, 0xed, 0xda, 0x2e, 0xf9, 0xe0, 0x10,
  0xe5, 0x0d, 0x01, 0xbd, 0xcd, 0x00, 0xc9, 0xd0, 0xec, 0x15, 0x31, 0xed,
  0xbd, 0xc5, 0x0c, 0x0d, 0xf0, 0xdd, 0x22, 0x2d, 0xf2, 0xa8, 0xf6, 0x04,
  0x32, 0x3b, 0x33, 0x45, 0x1d, 0xe6, 0x1d, 0x34, 0xcc, 0xfb, 0x35, 0x30,
  0xf4, 0xc7, 0xfc, 0x17, 0x06, 0x28, 0xca, 0xe6, 0x1a, 0xb8, 0x2b, 0xf3,
  0x07, 0xcc, 0x46, 0xfa, 0x2e, 0xe8, 0xc6, 0x09, 0xf4, 0xcd, 0xf8, 0x31,
  0xeb, 0xf1, 0x0f, 0x17, 0xb9, 0x20, 0x48, 0x03, 0x01, 0xea, 0x15, 0xf4,
  0xd7, 0x2f, 0xeb, 0x2e, 0xef, 0x07, 0xcb, 0xd2, 0x12, 0x10, 0x01, 0xc6,
  0xec, 0xe2, 0xd5, 0x4d, 0xc7, 0xf4, 0xf0, 0xbc, 0x08, 0x07, 0x04, 0xf2,
  0xa6, 0x1b, 0xd4, 0xbe, 0x11, 0xd1, 0xda, 0xcd, 0xd4, 0xb7, 0x33, 0xae,
  0xe6, 0x29, 0xc8, 0x3c, 0xe7, 0xef, 0x1d, 0xc5, 0xda, 0xe9, 0x19, 0xf4,
  0xfc, 0xe9, 0xd7, 0x35, 0x1a, 0x30, 0xa8, 0x02, 0x07, 0x16, 0xeb, 0xbd,
  0xfa, 0x0a, 0x0b, 0xf7, 0xf7, 0x39, 0x0f, 0xd2, 0xf6, 0xe7, 0xf5, 0xd7,
  0x23, 0x50, 0xff, 0xe8, 0xbc, 0xe4, 0xf8, 0xed, 0x0b, 0x16, 0x93, 0x05,
  0x05, 0xe4, 0xdf, 0x22, 0x27, 0xdd, 0xfe, 0x24, 0x0d, 0x16, 0xd2, 0xf3,
  0xa4, 0xd3, 0x21, 0xea, 0xf6, 0xdb, 0xe8, 0x12, 0xc8, 0x30, 0xd7, 0xfb,
  0xe8, 0x32, 0xac, 0x3e, 0xc0, 0xff, 0xe6, 0x1f, 0xca, 0x0d, 0xa8, 0xf4,
  0xd0, 0xe6, 0x1e, 0xd8, 0x04, 0x21, 0x95, 0x26, 0xdd, 0x30, 0xee, 0xe3,
  0xd3, 0x3e, 0x1c, 0xa8, 0xbc, 0xa3, 0x2d, 0x0a, 0xee, 0xff, 0xe6, 0x2a,
  0x0b, 0x3d, 0xd2, 0xe0, 0x17, 0xf4, 0x04, 0x2e, 0xe3, 0x58, 0xe6, 0xb3,
  0x26, 0x13, 0x00, 0x0a, 0xe1, 0xfe, 0x1b, 0xf8, 0xd5, 0xd8, 0xf5, 0xfa,
  0xf0, 0x04, 0x0e, 0x19, 0xf8, 0x21, 0x0d, 0x3e, 0xa2, 0xeb, 0xf7, 0xdd,
  0xca, 0x33, 0x98, 0xc5, 0x93, 0xf9, 0xf8, 0x2e, 0x11, 0x35, 0xf4, 0xfe,
  0xa8, 0x13, 0x22, 0x2f, 0x16, 0x27, 0x07, 0xfb, 0xd7, 0x2a, 0x16, 0xe2,
  0x31, 0x2d, 0xd7, 0x1c, 0xdb, 0xd6, 0xfc, 0x4f, 0x15, 0x00, 0xc4, 0x31,
  0xc2, 0x1e, 0xd2, 0xf4, 0xcf, 0xdc, 0xd0, 0x9a, 0x08, 0xe2, 0x47, 0x21,
  0xe2, 0x3e, 0x91, 0xfb, 0x26, 0xe4, 0xf5, 0x22, 0xd2, 0x11, 0xe3, 0x3f,
  0xb1, 0xf3, 0xfb, 0x1a, 0x27, 0x1e, 0xf4, 0xb5, 0xc8, 0xea, 0x2a, 0xa9,
  0x19, 0x1d, 0xfd, 0x08, 0xdd, 0xb8, 0xbb, 0x23, 0x18, 0xe0, 0xbb, 0xd9,
  0xe1, 0x45, 0x11, 0x24, 0x1c, 0x02, 0xf4, 0xad, 0x13, 0x9f, 0x31, 0xdc,
  0xf3, 0x10, 0xcd, 0x15, 0x01, 0xe9, 0xe8, 0xee, 0x20, 0x1f, 0xab, 0x09,
  0xcd, 0xcc, 0xe0, 0x0e, 0x3d, 0xba, 0xda, 0x94, 0xf9, 0xe8, 0x56, 0xbc,
  0x49, 0xfa, 0xb3, 0xaf, 0x16, 0x04, 0x0f, 0xb3, 0x0b, 0x25, 0xb3, 0x02,
  0xeb, 0x3e, 0xff, 0xe4, 0xd8, 0xe6, 0xe2, 0xeb, 0xea, 0x09, 0x25, 0x34,
  0x02, 0xff, 0xb0, 0xcb, 0xd6, 0x2f, 0x29, 0xc2, 0x15, 0xff, 0x08, 0xfa,
  0xda, 0xfb, 0xc6, 0xf9, 0xc0, 0xbd, 0xab, 0xbc, 0x57, 0xe5, 0xbb, 0xc1,
  0x3b, 0xd7, 0xa9, 0xf0, 0x38, 0xff, 0xe1, 0xf5, 0x04, 0xf7, 0xdc, 0x1b,
  0x08, 0x25, 0x2a, 0xd2, 0x1e, 0x2e, 0x08, 0xca, 0xd0, 0xf6, 0xe3, 0xf7,
  0x20, 0xd8, 0xe5, 0xfc, 0x26, 0x01, 0x32, 0x25, 0xea, 0x0a, 0xcf, 0xec,
  0x18, 0x1c, 0xd8, 0xf8, 0x40, 0xa9, 0x3f, 0x1b, 0xa9, 0xec, 0xbd, 0xc9,
  0x5f, 0x13, 0x0c, 0x38, 0xca, 0xeb, 0xc6, 0x39, 0xea, 0x16, 0xc2, 0xf5,
  0x81, 0x0f, 0x23, 0xef, 0xed, 0xef, 0xce, 0x1e, 0x32, 0x04, 0x2a, 0x2b,
  0xda, 0x25, 0xc9, 0x14, 0x0e, 0xeb, 0x2f, 0xff, 0x03, 0x1f, 0x06, 0x06,
  0xf5, 0xe6, 0x09, 0x2c, 0xe7, 0xf4, 0x0a, 0x12, 0x25, 0xd4, 0x4e, 0xe6,
  0x28, 0x20, 0xc9, 0x0e, 0xfe, 0xcb, 0x13, 0x02, 0x3f, 0xea, 0x07, 0xdc,
  0x36, 0x43, 0x0b, 0xfc, 0x48, 0xf9, 0xc6, 0x0a, 0x65, 0x00, 0xc9, 0x1a,
  0xe5, 0xed, 0xe5, 0x44, 0x13, 0xd7, 0x2f, 0x73, 0xf3, 0x2e, 0x0f, 0x21,
  0xfe, 0x28, 0xfa, 0x5d, 0xea, 0x39, 0xd9, 0x1d, 0x2a, 0x18, 0x10, 0x08,
  0xe2, 0xf2, 0x05, 0xfe, 0xcc, 0x33, 0xcf, 0x2b, 0x39, 0x26, 0xf4, 0xbe,
  0x9e, 0x61, 0x0c, 0x31, 0x03, 0xe4, 0x2f, 0xfb, 0xf3, 0x0a, 0xe3, 0xda,
  0xe5, 0xe9, 0xf6, 0xe5, 0xee, 0xdd, 0xd7, 0x19, 0x0f, 0x4b, 0x09, 0x45,
  0xe6, 0xfb, 0x03, 0x5b, 0xe4, 0x3b, 0xe4, 0x1d, 0x12, 0x0e, 0xd9, 0x0f,
  0xf4, 0xe2, 0x5c, 0xe3, 0x8f, 0x2b, 0xfa, 0xbf, 0x24, 0x10, 0xec, 0x00,
  0xbb, 0x03, 0xe8, 0x24, 0xff, 0xbc, 0x13, 0x20, 0xb5, 0x2c, 0x28, 0x1e,
  0x0e, 0x17, 0x26, 0x0d, 0xc8, 0xe6, 0x2d, 0xe1, 0xf8, 0xde, 0x2b, 0xdc,
  0xd3, 0x21, 0x1a, 0x15, 0xb7, 0xf1, 0x08, 0xe9, 0x9b, 0x1d, 0x34, 0x31,
  0x26, 0xe5, 0x06, 0x4a, 0xe7, 0x0b, 0xf1, 0x0c, 0x1d, 0xc7, 0x33, 0xe1,
  0x9c, 0x57, 0xcc, 0xf8, 0x39, 0x1a, 0x08, 0x07, 0x01, 0x18, 0x0e, 0xe1,
  0x14, 0xe0, 0x16, 0xfe, 0xba, 0x49, 0xf5, 0x45, 0x43, 0x0c, 0x15, 0x27,
  0xe0, 0x09, 0x13, 0xe8, 0xf7, 0xee, 0x2b, 0x47, 0xaa, 0x14, 0xde, 0xe2,
  0xf3, 0x01, 0xb5, 0xe5, 0xda, 0xf7, 0x0d, 0xd8, 0xf2, 0xed, 0x3b, 0x45,
  0xd3, 0x08, 0x04, 0xf9, 0xe6, 0xc4, 0x2f, 0x0b, 0xb5, 0x25, 0x04, 0x21,
  0xe4, 0x26, 0xe6, 0xbe, 0xc3, 0x21, 0x42, 0x16, 0xf0, 0xdd, 0xd0, 0xa0,
  0xa0, 0xc1, 0xcb, 0xb0, 0xdf, 0x1f, 0x1a, 0xd6, 0xba, 0xe4, 0xef, 0xef,
  0xf8, 0xe4, 0x2e, 0xea, 0x15, 0xe1, 0x0d, 0xf3, 0xbb, 0x03, 0x20, 0x71,
  0x18, 0x0f, 0x2e, 0x0a, 0xf1, 0x23, 0xcc, 0x66, 0xbc, 0xd6, 0xfa, 0x20,
  0x17, 0x46, 0xdb, 0x2d, 0x08, 0x27, 0xec, 0xc9, 0x48, 0xb7, 0xfb, 0x4e,
  0x0f, 0x09, 0x03, 0xde, 0x0a, 0x15, 0xf4, 0x12, 0xd8, 0xf3, 0x08, 0x00,
  0x43, 0x19, 0x34, 0x21, 0xe0, 0xfa, 0x11, 0x16, 0x4e, 0x24, 0xf2, 0x0b,
  0xe0, 0x16, 0x10, 0x07, 0x30, 0x03, 0xfe, 0x09, 0xd8, 0x19, 0x2c, 0xf1,
  0x04, 0xe0, 0xd5, 0x1b, 0xb4, 0xf9, 0x11, 0xe6, 0xf5, 0x15, 0x27, 0x20,
  0xcc, 0x3e, 0x06, 0xed, 0x22, 0x3a, 0xf8, 0x19, 0xaf, 0xdd, 0x21, 0x02,
  0x12, 0x04, 0x21, 0x2d, 0xa4, 0x05, 0xfe, 0xd3, 0xc2, 0xd9, 0xd4, 0x0a,
  0xd3, 0x45, 0xec, 0x07, 0x8a, 0xf6, 0xff, 0xff, 0x04, 0x00, 0x00, 0x00,
  0x20, 0x00, 0x00, 0x00, 0x0f, 0x03, 0x00, 0x00, 0x55, 0xfd, 0xff, 0xff,
  0x85, 0x01, 0x00, 0x00, 0xd7, 0xfb, 0xff, 0xff, 0xbf, 0xff, 0xff, 0xff,
  0xd4, 0xfb, 0xff, 0xff, 0x0d, 0xff, 0xff, 0xff, 0x6f, 0x00, 0x00, 0x00,
  0xb6, 0xf6, 0xff, 0xff, 0x04, 0x00, 0x00, 0x00, 0x50, 0x00, 0x00, 0x00,
  0xcc, 0xfe, 0xff, 0xff, 0xb5, 0xff, 0xff, 0xff, 0x1c, 0x01, 0x00, 0x00,
  0xfb, 0xfe, 0xff, 0xff, 0x20, 0x02, 0x00, 0x00, 0x2f, 0x01, 0x00, 0x00,
  0x53, 0x01, 0x00, 0x00, 0xd5, 0x00, 0x00, 0x00, 0x6a, 0xff, 0xff, 0xff,
  0xf2, 0xfe, 0xff, 0xff, 0xa6, 0x01, 0x00, 0x00, 0x12, 0x00, 0x00, 0x00,
  0x1d, 0x01, 0x00, 0x00, 0xe0, 0x00, 0x00, 0x00, 0xaa, 0xfe, 0xff, 0xff,
  0x32, 0xfe, 0xff, 0xff, 0x3b, 0x01, 0x00, 0x00, 0x34, 0xff, 0xff, 0xff,
  0x66, 0xfe, 0xff, 0xff, 0x33, 0x00, 0x00, 0x00, 0x12, 0xf7, 0xff, 0xff,
  0x04, 0x00, 0x00, 0x00, 0x80, 0x07, 0x00, 0x00, 0x9b, 0xde, 0xeb, 0x19,
  0xc8, 0xfe, 0x05, 0xef, 0x04, 0x03, 0x15, 0xed, 0xba, 0x1b, 0x11, 0x24,
  0x33, 0x08, 0x07, 0xe5, 0x30, 0x1e, 0x18, 0xe8, 0xee, 0x03, 0x44, 0x2b,
  0x08, 0xe7, 0x2c, 0x2d, 0xae, 0x16, 0x09, 0xeb, 0xeb, 0xf7, 0x0a, 0xe1,
  0x1c, 0x1f, 0xcd, 0xe9, 0xd8, 0x3e, 0xfc, 0xca, 0xbf, 0x07, 0x19, 0xf5,
  0xec, 0x23, 0x2f, 0xe7, 0x4e, 0xe6, 0x31, 0x1a, 0xfe, 0x0c, 0x27, 0x23,
  0xc8, 0x03, 0xfa, 0xdf, 0xe8, 0x19, 0x07, 0xe8, 0x38, 0xd9, 0xe9, 0xeb,
  0xe4, 0xc8, 0xf0, 0xe9, 0xfc, 0xf5, 0x1a, 0xea, 0x08, 0xfb, 0xba, 0xe9,
  0xd5, 0xfc, 0xe0, 0x28, 0x2c, 0xcd, 0xce, 0xfb, 0x31, 0xe4, 0x0d, 0xe9,
  0x21, 0xee, 0x00, 0xe5, 0x0f, 0xe7, 0xf9, 0xe1, 0x33, 0xd8, 0x0e, 0xf4,
  0x18, 0xf1, 0xde, 0xe7, 0x40, 0x2f, 0xf0, 0xf1, 0xd9, 0xfa, 0x15, 0xd8,
  0xd4, 0x15, 0x0b, 0xe5, 0x47, 0xc8, 0x28, 0x05, 0x21, 0xef, 0xec, 0xef,
  0xfa, 0xea, 0x18, 0x05, 0xf8, 0x16, 0x17, 0xde, 0x04, 0x02, 0xfb, 0x0b,
  0x02, 0xd8, 0xdf, 0x28, 0xc7, 0x38, 0xed, 0x25, 0xde, 0xf0, 0x2d, 0xe3,
  0x04, 0x13, 0x1f, 0x34, 0xce, 0x28, 0xd6, 0x14, 0xe4, 0xef, 0x03, 0x0a,
  0xc4, 0x04, 0xeb, 0x03, 0x4e, 0x04, 0xf9, 0x0f, 0xf5, 0x2a, 0xbc, 0x10,
  0xff, 0x2d, 0x06, 0x45, 0x16, 0xf7, 0xe7, 0x08, 0xf2, 0xf8, 0x2c, 0x3c,
  0xc1, 0x21, 0x0c, 0x46, 0x05, 0x25, 0xde, 0x3a, 0xe6, 0x1e, 0x0a, 0x33,
  0x00, 0x13, 0x33, 0x0b, 0xf7, 0x01, 0x21, 0x01, 0x16, 0xb6, 0x0c, 0xfd,
  0xec, 0x0e, 0xec, 0xe5, 0xb6, 0xd9, 0x22, 0x09, 0x3f, 0x15, 0x03, 0x2a,
  0x30, 0xfe, 0x12, 0x10, 0x28, 0xf2, 0x0d, 0x00, 0xd2, 0x1a, 0xe3, 0xe1,
  0xff, 0xfe, 0xdd, 0xd6, 0xf2, 0xf6, 0x40, 0x02, 0x23, 0x38, 0x32, 0xeb,
  0xf0, 0xe2, 0xfa, 0xea, 0x0b, 0x11, 0xfa, 0xff, 0xf4, 0xf0, 0x1a, 0xf9,
  0x06, 0xfc, 0x24, 0x3c, 0xf0, 0xf2, 0xe7, 0x12, 0x08, 0xd0, 0xcb, 0x0c,
  0x11, 0x1c, 0xb0, 0x06, 0xf4, 0x0d, 0xfb, 0x40, 0xfd, 0x1f, 0xe0, 0xe8,
  0x36, 0x1f, 0x41, 0xe4, 0x17, 0x0f, 0xbd, 0xfa, 0xf8, 0xde, 0xf6, 0x0b,
  0x26, 0xeb, 0xea, 0xf1, 0x18, 0x05, 0xfc, 0xd5, 0xdf, 0x14, 0x2e, 0xef,
  0xda, 0xf6, 0xe4, 0xd6, 0x7a, 0x18, 0xfe, 0xfc, 0xc6, 0xd7, 0xfe, 0x0a,
  0xd6, 0xde, 0xa9, 0x1e, 0xf4, 0x30, 0x20, 0x16, 0xde, 0xda, 0xf2, 0x13,
  0x20, 0xbf, 0x08, 0xd9, 0xb2, 0xfc, 0x0b, 0x00, 0xf3, 0x17, 0x45, 0x12,
  0x2b, 0xfe, 0x81, 0x04, 0x0e, 0xf6, 0xf0, 0xe3, 0xd6, 0xef, 0xda, 0xfb,
  0xc6, 0xf7, 0xcf, 0xc0, 0xb4, 0x07, 0xe8, 0x09, 0x0b, 0xd9, 0xcf, 0xde,
  0xc5, 0x2a, 0xa9, 0x02, 0xe0, 0xe3, 0x30, 0xd2, 0x4b, 0xf5, 0x1d, 0xcb,
  0x18, 0x27, 0x25, 0xf5, 0x2a, 0x13, 0x05, 0x3e, 0x51, 0x15, 0xf1, 0xe5,
  0x24, 0x0a, 0xd7, 0x09, 0x60, 0x06, 0xe0, 0xed, 0xea, 0xe2, 0x08, 0xd3,
  0xf2, 0x1b, 0xfe, 0x39, 0x28, 0xfa, 0x0a, 0x07, 0x24, 0xfb, 0xe7, 0x03,
  0x16, 0xed, 0x2f, 0xf5, 0xaf, 0x32, 0xfb, 0xf9, 0x39, 0x2e, 0xd6, 0x24,
  0x2f, 0xf6, 0x23, 0x06, 0xe7, 0x1b, 0x3e, 0xf0, 0x1c, 0xf2, 0x13, 0xee,
  0xf8, 0x25, 0x28, 0xea, 0xef, 0x30, 0xe4, 0x17, 0xd7, 0xf5, 0xfe, 0x13,
  0x05, 0xe7, 0xe0, 0xe8, 0xfe, 0xfd, 0x10, 0xf9, 0x09, 0x24, 0xf9, 0x08,
  0x02, 0xe0, 0x09, 0x1b, 0xd0, 0xf3, 0xd6, 0x04, 0xef, 0xd5, 0x23, 0x1c,
  0xe5, 0xf4, 0xdf, 0x0f, 0x03, 0xed, 0x48, 0x05, 0x04, 0x13, 0x1a, 0x20,
  0x2f, 0x09, 0x0d, 0xe1, 0xc2, 0xf1, 0x13, 0x3b, 0xf4, 0x1b, 0xd8, 0x35,
  0xf5, 0xc6, 0x1f, 0x2d, 0xe3, 0x2c, 0xf0, 0xfb, 0xcc, 0xf9, 0x19, 0xf6,
  0x2f, 0x2f, 0xfd, 0x00, 0x04, 0xee, 0xe4, 0xf2, 0x0f, 0x27, 0x2c, 0xeb,
  0x0b, 0xf9, 0x1a, 0xf5, 0xc7, 0xea, 0x13, 0x23, 0xdc, 0x23, 0xe2, 0xf4,
  0x26, 0xd8, 0x04, 0xf5, 0x29, 0xe6, 0x1e, 0x15, 0xf1, 0xe6, 0xfe, 0x10,
  0xd1, 0xd3, 0xee, 0xf5, 0xcb, 0x3e, 0x3b, 0xd1, 0x04, 0xf1, 0x1c, 0xd2,
  0x53, 0xc2, 0x0c, 0xfe, 0xec, 0xf6, 0x0c, 0x28, 0x01, 0xf6, 0xfa, 0xe0,
  0x04, 0xf6, 0x06, 0xd9, 0x04, 0xc7, 0x29, 0xc3, 0x0f, 0xc0, 0xe0, 0xe8,
  0x30, 0x3c, 0xf8, 0xf1, 0x19, 0xe9, 0xe8, 0xce, 0xc9, 0x0b, 0xfa, 0x0f,
  0x1d, 0x0f, 0xe7, 0xf9, 0x29, 0xf8, 0x08, 0x1d, 0xea, 0xea, 0x01, 0xf6,
  0x11, 0x11, 0x04, 0xf7, 0x0a, 0x24, 0x0b, 0xed, 0xfd, 0xe1, 0x02, 0xf1,
  0x16, 0x08, 0xf8, 0xf9, 0xe1, 0xf8, 0xc7, 0x03, 0x13, 0xea, 0xd6, 0xf6,
  0x15, 0xe5, 0xea, 0x00, 0x0a, 0xe9, 0xe3, 0x16, 0x06, 0x1e, 0x2b, 0x21,
  0xe7, 0x07, 0xf1, 0xdb, 0x1a, 0xcd, 0x27, 0xe5, 0xf5, 0xf4, 0x1e, 0x15,
  0x0b, 0xe9, 0xfc, 0xf1, 0xc7, 0xee, 0x0c, 0xe9, 0x15, 0x0c, 0xee, 0x06,
  0x1b, 0x13, 0xd9, 0x1c, 0x2f, 0x14, 0x09, 0xe0, 0x22, 0x03, 0x0d, 0x35,
  0x2f, 0x00, 0x11, 0x2a, 0xed, 0x02, 0xc8, 0xb5, 0xc9, 0xfc, 0x23, 0x32,
  0xf1, 0x2e, 0xce, 0xf3, 0x45, 0xf1, 0x26, 0x22, 0xcd, 0xd9, 0x25, 0xfb,
  0xf8, 0x23, 0x1a, 0xe9, 0x00, 0x0e, 0xe0, 0xd0, 0xb9, 0x15, 0x4a, 0x03,
  0xf3, 0xdc, 0xfd, 0xbd, 0xb3, 0x1b, 0xce, 0x41, 0xbf, 0x18, 0xe3, 0x3f,
  0x37, 0x07, 0xf9, 0xe8, 0x2d, 0xe4, 0xe0, 0x29, 0x25, 0x13, 0x2f, 0xe9,
  0x22, 0x07, 0x15, 0xd4, 0xec, 0xf6, 0x1e, 0xd4, 0x24, 0xfa, 0x04, 0x08,
  0xfb, 0xe0, 0xd7, 0x08, 0xfd, 0xf8, 0x45, 0x21, 0xc7, 0xc8, 0xd9, 0x18,
  0xf8, 0xb8, 0x12, 0xfa, 0xf7, 0xf9, 0xf2, 0x1b, 0xf5, 0x13, 0x26, 0xf3,
  0x26, 0x22, 0x07, 0x16, 0x07, 0x1c, 0xeb, 0xc1, 0xd8, 0xee, 0xe4, 0x22,
  0x06, 0xf4, 0x1a, 0x15, 0x1e, 0xe5, 0x14, 0x05, 0xff, 0xe1, 0xec, 0xe4,
  0x06, 0x3f, 0x18, 0xf4, 0x2d, 0x21, 0xe3, 0x0b, 0xe8, 0xed, 0x27, 0xf3,
  0xea, 0xce, 0xf2, 0xf5, 0xd1, 0x09, 0xc8, 0xf3, 0xf3, 0xfe, 0x06, 0x10,
  0x1a, 0x27, 0xdb, 0xe1, 0x1f, 0x04, 0xd0, 0x00, 0x4b, 0x23, 0xc8, 0x16,
  0x24, 0x1e, 0xc8, 0xdb, 0xfc, 0xde, 0xcc, 0xed, 0xf1, 0x04, 0x19, 0x47,
  0x24, 0xc8, 0x1c, 0x20, 0x25, 0x29, 0x28, 0x1a, 0x0d, 0xe8, 0xf3, 0x19,
  0x05, 0xfa, 0xf8, 0xf9, 0xfb, 0xf1, 0x2d, 0x0e, 0x0e, 0xf3, 0xdc, 0xd8,
  0xf5, 0xd8, 0xef, 0xd0, 0x03, 0x24, 0xff, 0x18, 0xfe, 0x47, 0xda, 0xe7,
  0x1a, 0xeb, 0x0b, 0x16, 0x05, 0x29, 0x1f, 0xe8, 0xf5, 0xe8, 0x00, 0x1d,
  0x2a, 0x19, 0x3a, 0xf8, 0x04, 0xe3, 0xf3, 0x0b, 0xe2, 0x04, 0x0a, 0xf9,
  0x2b, 0x09, 0x05, 0x1d, 0xdc, 0x0f, 0xc6, 0xf6, 0xd8, 0x13, 0xc6, 0x1e,
  0xfa, 0xf5, 0x06, 0xef, 0x34, 0x1d, 0x1a, 0x23, 0xe7, 0x19, 0x0c, 0xec,
  0x3e, 0xf8, 0xf0, 0xcf, 0x23, 0xf1, 0x00, 0xcf, 0xee, 0x5a, 0x27, 0xeb,
  0x34, 0x0c, 0x11, 0x41, 0x16, 0x07, 0xff, 0x3c, 0x3a, 0x20, 0x18, 0xfc,
  0x04, 0x0a, 0x1e, 0x19, 0x0c, 0xf3, 0xf9, 0xf0, 0x41, 0xfa, 0x16, 0x0b,
  0x29, 0xe1, 0x1d, 0x0e, 0xfc, 0x0b, 0x0c, 0xf0, 0xe6, 0xf1, 0xb9, 0x1a,
  0xeb, 0xdf, 0xe8, 0x01, 0x22, 0x31, 0x12, 0xd6, 0xfd, 0xf1, 0x0f, 0xeb,
  0x19, 0xf4, 0x41, 0x0a, 0xec, 0x03, 0x07, 0x2b, 0xff, 0xfd, 0xf4, 0x02,
  0xe1, 0x03, 0x0c, 0xfe, 0xc8, 0x0d, 0x27, 0xbe, 0xff, 0xfa, 0xe7, 0xe3,
  0x24, 0x36, 0xc0, 0x04, 0xda, 0x38, 0x19, 0xf5, 0xf2, 0xc7, 0xf2, 0xd8,
  0xd8, 0xea, 0xe8, 0xea, 0x13, 0xff, 0x4e, 0xe7, 0x1a, 0x19, 0xf5, 0xed,
  0xdf, 0x06, 0xde, 0xd8, 0x04, 0x20, 0x08, 0xe2, 0x58, 0x13, 0xd7, 0xf6,
  0xe6, 0xe5, 0xe7, 0x51, 0x20, 0x24, 0x13, 0x1a, 0x0c, 0xf1, 0xee, 0xd6,
  0xc1, 0xf6, 0xb2, 0xf0, 0xd7, 0xfc, 0x1e, 0x36, 0x62, 0x35, 0x06, 0xe4,
  0x36, 0xdf, 0x13, 0x0d, 0xc7, 0xf8, 0xf1, 0xe8, 0xe4, 0xf1, 0x03, 0x05,
  0x3c, 0x0b, 0x2d, 0xb5, 0xf0, 0xf3, 0xf0, 0xf4, 0x42, 0x38, 0xd9, 0xc0,
  0x07, 0x14, 0xfc, 0xe8, 0xf7, 0x0e, 0x23, 0x35, 0xc2, 0x15, 0x00, 0x13,
  0x02, 0xd7, 0xfd, 0x14, 0xf7, 0x37, 0xf8, 0x02, 0xb5, 0x06, 0x31, 0x0b,
  0xbf, 0xbb, 0x0f, 0xe0, 0x1e, 0x19, 0xd1, 0xc9, 0xe5, 0xf5, 0x29, 0x07,
  0xe6, 0x1a, 0xe7, 0x03, 0x1f, 0x12, 0x02, 0xe1, 0x30, 0xdd, 0x0e, 0x24,
  0xe9, 0xe6, 0xef, 0x32, 0x15, 0x1e, 0x0e, 0xce, 0x1f, 0xf5, 0x32, 0xfe,
  0xf5, 0xcd, 0xdf, 0x2c, 0xeb, 0x18, 0x23, 0x3c, 0x31, 0x48, 0xea, 0xe8,
  0x2a, 0xef, 0xed, 0x17, 0xb2, 0xe6, 0xeb, 0x21, 0xe3, 0x0c, 0x05, 0x0b,
  0x36, 0x0b, 0x5c, 0xe8, 0xff, 0x01, 0x0a, 0xf6, 0x12, 0x04, 0x16, 0x1c,
  0x03, 0x35, 0x0f, 0x42, 0x14, 0x0e, 0x60, 0x24, 0xe1, 0x0e, 0xe8, 0xde,
  0x1e, 0xf7, 0x0e, 0x1c, 0x1f, 0x06, 0x2c, 0x22, 0x1e, 0x00, 0x32, 0xba,
  0x0d, 0xe4, 0x23, 0xf2, 0xd4, 0x07, 0xef, 0xd1, 0x28, 0xdc, 0xfb, 0x15,
  0x1e, 0x04, 0x00, 0xef, 0x12, 0xe9, 0xfc, 0x34, 0x31, 0xfe, 0x00, 0x17,
  0x1c, 0xf4, 0xe8, 0x00, 0x01, 0xff, 0x04, 0xfe, 0x41, 0x1c, 0xf3, 0x06,
  0xe8, 0x27, 0x18, 0xf6, 0x02, 0x04, 0xde, 0xc4, 0xd8, 0x27, 0x20, 0xec,
  0x00, 0xf3, 0x20, 0xa3, 0x27, 0xfc, 0x16, 0xea, 0x2f, 0x18, 0xde, 0xef,
  0xef, 0x0d, 0x3f, 0x1a, 0xf9, 0x2c, 0x18, 0x49, 0x03, 0x0c, 0x2a, 0x1d,
  0x2e, 0x06, 0xbb, 0x17, 0x07, 0x00, 0xed, 0x20, 0x0d, 0x05, 0x1b, 0xe7,
  0x29, 0x11, 0x43, 0x2f, 0xda, 0x06, 0xf9, 0x1f, 0xd0, 0x11, 0xf7, 0x0f,
  0x18, 0xf2, 0x1b, 0x46, 0xef, 0x2b, 0x3d, 0xf8, 0x43, 0xf4, 0x24, 0xfc,
  0x43, 0x48, 0x05, 0xff, 0x17, 0x32, 0xdf, 0x1d, 0xe6, 0x0c, 0x0f, 0x35,
  0xd2, 0xd9, 0xed, 0x14, 0xe9, 0xfa, 0x26, 0xd2, 0xf5, 0xf3, 0x2c, 0x29,
  0x05, 0x1d, 0x3e, 0xf8, 0xd1, 0xe0, 0x0d, 0xcb, 0xe6, 0x26, 0xd4, 0x20,
  0x05, 0x2f, 0xf8, 0xd9, 0xe3, 0x2b, 0xf7, 0xfb, 0xff, 0x15, 0xfb, 0xe1,
  0x0d, 0xda, 0x07, 0x08, 0x1e, 0xe2, 0xfb, 0x1a, 0xfc, 0xfd, 0xc8, 0xdb,
  0xdf, 0xec, 0xb5, 0xe5, 0x1f, 0x09, 0xe9, 0x02, 0xf2, 0x04, 0xb3, 0x07,
  0x31, 0xec, 0xe3, 0x3f, 0xd8, 0x0e, 0x1c, 0x10, 0x0f, 0xfe, 0x02, 0x06,
  0xe5, 0x1d, 0xdd, 0xfd, 0xe9, 0x11, 0x0b, 0xd4, 0x49, 0x6d, 0x26, 0x0e,
  0x2f, 0xe5, 0xdd, 0xf3, 0xfb, 0xf6, 0x31, 0x24, 0x16, 0x0f, 0xeb, 0xd7,
  0x01, 0x03, 0xf2, 0xd0, 0x06, 0x08, 0x2c, 0xfb, 0xf3, 0xe1, 0x37, 0xdf,
  0x0f, 0xfb, 0x0f, 0xee, 0xd9, 0xe3, 0xf3, 0x00, 0xd0, 0xed, 0xf8, 0x29,
  0x1b, 0x20, 0xe7, 0x00, 0x52, 0xe5, 0x2a, 0x08, 0xfd, 0xdc, 0xcf, 0xf9,
  0xf4, 0xff, 0xfe, 0x02, 0x0b, 0xe6, 0x1b, 0x08, 0x0f, 0xe7, 0xe3, 0x15,
  0xe7, 0x07, 0x2b, 0x20, 0xa7, 0x00, 0x86, 0xd3, 0xc3, 0x1c, 0xdc, 0x1a,
  0x0f, 0xf9, 0x0b, 0xdc, 0x3f, 0xef, 0x0a, 0x29, 0x21, 0x06, 0x2d, 0x11,
  0x06, 0x08, 0x20, 0x13, 0xfd, 0x05, 0xc6, 0xdb, 0xfa, 0xd7, 0x01, 0xe9,
  0x00, 0xe7, 0x2b, 0xf1, 0xe4, 0x16, 0x08, 0xd2, 0x0e, 0xe5, 0x32, 0x01,
  0xdd, 0xcf, 0xe4, 0x39, 0x10, 0x0c, 0x01, 0xf1, 0xea, 0xf4, 0x2e, 0x52,
  0xf0, 0x40, 0x24, 0xd6, 0xdb, 0xfb, 0xd1, 0xf4, 0x24, 0x1b, 0x03, 0x06,
  0x15, 0x14, 0xfa, 0xe3, 0xc3, 0xe2, 0x16, 0xea, 0x0a, 0x25, 0x23, 0x22,
  0xf9, 0xd6, 0xfd, 0x28, 0x1b, 0xd3, 0xf2, 0x1d, 0xf6, 0xf4, 0xfe, 0xef,
  0x17, 0x2b, 0x0e, 0xe2, 0x13, 0xc9, 0x0a, 0xee, 0xec, 0x23, 0x21, 0x22,
  0x0a, 0xfc, 0x2a, 0xf5, 0x3b, 0x02, 0x42, 0x14, 0x29, 0x19, 0x0e, 0x0a,
  0x00, 0xe4, 0x12, 0x01, 0x21, 0xdc, 0x18, 0xfd, 0x40, 0xc1, 0xd2, 0x04,
  0x0f, 0xbc, 0xd4, 0x07, 0x11, 0x19, 0x33, 0x26, 0xe1, 0xc6, 0x08, 0xf3,
  0x0e, 0x03, 0xcc, 0xff, 0x03, 0xf6, 0xe3, 0x12, 0xfb, 0xe7, 0x15, 0x36,
  0xfa, 0x0d, 0x08, 0xdb, 0x0a, 0x1c, 0xe9, 0x19, 0x0f, 0x04, 0xfa, 0xd9,
  0xea, 0x1c, 0x28, 0x00, 0x04, 0xdb, 0xe9, 0xdb, 0xd2, 0x02, 0x25, 0xf8,
  0xca, 0x14, 0xe7, 0x22, 0x17, 0xe1, 0xfa, 0xf8, 0x17, 0xe4, 0x1e, 0xfb,
  0x17, 0xdf, 0x1e, 0xbf, 0x17, 0x13, 0x37, 0xf1, 0x05, 0xe2, 0xf9, 0x25,
  0xf0, 0xec, 0x2e, 0x04, 0xd6, 0xdd, 0x20, 0x18, 0x0b, 0xfa, 0xf8, 0xea,
  0xf3, 0xe9, 0x1d, 0xce, 0x36, 0xeb, 0xd9, 0xe6, 0xe2, 0x1a, 0x23, 0xdd,
  0x1f, 0x17, 0x09, 0x1a, 0x2a, 0x26, 0x28, 0x20, 0xcf, 0xd3, 0x0d, 0x13,
  0xcb, 0xc6, 0xcf, 0x30, 0xf9, 0x18, 0xf1, 0x15, 0xb4, 0xea, 0x33, 0x26,
  0xea, 0xe8, 0xf1, 0x16, 0xb7, 0xee, 0xd1, 0xfb, 0x2c, 0xf7, 0x48, 0x23,
  0x00, 0x13, 0x26, 0x1a, 0xa8, 0xd4, 0xf0, 0x1c, 0x12, 0x1a, 0xfa, 0xf5,
  0x17, 0x04, 0xe3, 0x25, 0xfd, 0x10, 0xcb, 0xdd, 0xff, 0x3b, 0xe0, 0x04,
  0xb2, 0xe6, 0xd7, 0xcc, 0x2a, 0xd9, 0xf9, 0x1a, 0xf9, 0xeb, 0xdd, 0xff,
  0xfb, 0xe8, 0x17, 0x05, 0xea, 0xfa, 0x0d, 0x23, 0x64, 0xd2, 0x24, 0xe6,
  0xfb, 0x1e, 0xe9, 0x14, 0xf9, 0x05, 0xd5, 0x03, 0xdb, 0xeb, 0xf5, 0xfd,
  0x05, 0x0d, 0xfc, 0xf9, 0x18, 0xe7, 0xd8, 0xef, 0xf4, 0xde, 0x15, 0xdf,
  0xf0, 0xf9, 0x0a, 0x1b, 0xfb, 0x09, 0xdd, 0x1c, 0xdc, 0x15, 0x0b, 0x27,
  0x01, 0xf6, 0x14, 0x04, 0xe1, 0x03, 0x2d, 0x1d, 0x26, 0x01, 0xe7, 0x04,
  0xec, 0x17, 0x0b, 0xfb, 0xd6, 0x23, 0x01, 0x15, 0x05, 0xeb, 0x28, 0x13,
  0x00, 0x12, 0xf6, 0xe4, 0x16, 0x18, 0xea, 0x07, 0xe8, 0xed, 0x15, 0x06,
  0x00, 0xf5, 0xe6, 0x05, 0x11, 0xd6, 0x05, 0x2f, 0x04, 0x0b, 0x40, 0x03,
  0x2c, 0x07, 0xb2, 0xd4, 0x0d, 0x17, 0xe9, 0xf1, 0xec, 0x00, 0xf8, 0x0d,
  0x00, 0xcc, 0x1f, 0xfc, 0xc9, 0x11, 0x26, 0xfc, 0xf2, 0xdd, 0x17, 0x14,
  0xd3, 0xe4, 0x25, 0xf1, 0xdb, 0x0d, 0xf5, 0x25, 0xa0, 0xfb, 0xff, 0xff,
  0x0f, 0x00, 0x00, 0x00, 0x54, 0x4f, 0x43, 0x4f, 0x20, 0x43, 0x6f, 0x6e,
  0x76, 0x65, 0x72, 0x74, 0x65, 0x64, 0x2e, 0x00, 0x01, 0x00, 0x00, 0x00,
  0x04, 0x00, 0x00, 0x00, 0x28, 0xfa, 0xff, 0xff, 0x84, 0x01, 0x00, 0x00,
  0x78, 0x01, 0x00, 0x00, 0x6c, 0x01, 0x00, 0x00, 0x04, 0x00, 0x00, 0x00,
  0x04, 0x00, 0x00, 0x00, 0x10, 0x01, 0x00, 0x00, 0xa8, 0x00, 0x00, 0x00,
  0x5c, 0x00, 0x00, 0x00, 0x14, 0x00, 0x00, 0x00, 0x00, 0x00, 0x0e, 0x00,
  0x18, 0x00, 0x08, 0x00, 0x0c, 0x00, 0x10, 0x00, 0x07, 0x00, 0x14, 0x00,
  0x0e, 0x00, 0x00, 0x00, 0x00, 0x00, 0x00, 0x08, 0x02, 0x00, 0x00, 0x00,
  0x18, 0x00, 0x00, 0x00, 0x0c, 0x00, 0x00, 0x00, 0x04, 0x00, 0x00, 0x00,
  0x10, 0xfc, 0xff, 0xff, 0x01, 0x00, 0x00, 0x00, 0x08, 0x00, 0x00, 0x00,
  0x03, 0x00, 0x00, 0x00, 0x04, 0x00, 0x00, 0x00, 0x09, 0x00, 0x00, 0x00,
  0x02, 0x00, 0x00, 0x00, 0x00, 0x00, 0x0e, 0x00, 0x14, 0x00, 0x00, 0x00,
  0x08, 0x00, 0x0c, 0x00, 0x07, 0x00, 0x10, 0x00, 0x0e, 0x00, 0x00, 0x00,
  0x00, 0x00, 0x00, 0x01, 0x30, 0x00, 0x00, 0x00, 0x24, 0x00, 0x00, 0x00,
  0x10, 0x00, 0x00, 0x00, 0x0c, 0x00, 0x10, 0x00, 0x00, 0x00, 0x08, 0x00,
  0x0c, 0x00, 0x07, 0x00, 0x0c, 0x00, 0x00, 0x00, 0x00, 0x00, 0x00, 0x01,
  0x08, 0x00, 0x00, 0x00, 0x08, 0x00, 0x00, 0x00, 0x01, 0x00, 0x00, 0x00,
  0x04, 0x00, 0x00, 0x00, 0x03, 0x00, 0x00, 0x00, 0x03, 0x00, 0x00, 0x00,
  0x0b, 0x00, 0x00, 0x00, 0x00, 0x00, 0x00, 0x00, 0xaa, 0xff, 0xff, 0xff,
  0x00, 0x00, 0x00, 0x02, 0x01, 0x00, 0x00, 0x00, 0x38, 0x00, 0x00, 0x00,
  0x2c, 0x00, 0x00, 0x00, 0x14, 0x00, 0x00, 0x00, 0x00, 0x00, 0x0e, 0x00,
  0x14, 0x00, 0x00, 0x00, 0x08, 0x00, 0x0c, 0x00, 0x10, 0x00, 0x07, 0x00,
  0x0e, 0x00, 0x00, 0x00, 0x00, 0x00, 0x00, 0x01, 0x02, 0x00, 0x00, 0x00,
  0x02, 0x00, 0x00, 0x00, 0x08, 0x00, 0x00, 0x00, 0x01, 0x00, 0x00, 0x00,
  0x03, 0x00, 0x00, 0x00, 0x03, 0x00, 0x00, 0x00, 0x06, 0x00, 0x00, 0x00,
  0x0a, 0x00, 0x00, 0x00, 0x01, 0x00, 0x00, 0x00, 0x00, 0x00, 0x0e, 0x00,
  0x1a, 0x00, 0x08, 0x00, 0x0c, 0x00, 0x10, 0x00, 0x07, 0x00, 0x14, 0x00,
  0x0e, 0x00, 0x00, 0x00, 0x00, 0x00, 0x00, 0x11, 0x03, 0x00, 0x00, 0x00,
  0x38, 0x00, 0x00, 0x00, 0x2c, 0x00, 0x00, 0x00, 0x0c, 0x00, 0x00, 0x00,
  0x00, 0x00, 0x06, 0x00, 0x08, 0x00, 0x04, 0x00, 0x06, 0x00, 0x00, 0x00,
  0x04, 0x00, 0x00, 0x00, 0x04, 0x00, 0x00, 0x00, 0xff, 0xff, 0xff, 0xff,
  0x31, 0x00, 0x00, 0x00, 0x28, 0x00, 0x00, 0x00, 0x01, 0x00, 0x00, 0x00,
  0x01, 0x00, 0x00, 0x00, 0x06, 0x00, 0x00, 0x00, 0x02, 0x00, 0x00, 0x00,
  0x05, 0x00, 0x00, 0x00, 0x07, 0x00, 0x00, 0x00, 0x01, 0x00, 0x00, 0x00,
  0x08, 0x00, 0x00, 0x00, 0x01, 0x00, 0x00, 0x00, 0x05, 0x00, 0x00, 0x00,
  0x0c, 0x00, 0x00, 0x00, 0xb4, 0x05, 0x00, 0x00, 0xfc, 0x04, 0x00, 0x00,
  0xa8, 0x04, 0x00, 0x00, 0x28, 0x04, 0x00, 0x00, 0xb0, 0x03, 0x00, 0x00,
  0x3c, 0x03, 0x00, 0x00, 0xc0, 0x02, 0x00, 0x00, 0x80, 0x02, 0x00, 0x00,
  0x10, 0x02, 0x00, 0x00, 0xa4, 0x01, 0x00, 0x00, 0xd0, 0x00, 0x00, 0x00,
  0x04, 0x00, 0x00, 0x00, 0x8a, 0xfa, 0xff, 0xff, 0x00, 0x00, 0x00, 0x09,
  0x9c, 0x00, 0x00, 0x00, 0x04, 0x00, 0x00, 0x00, 0x7c, 0x00, 0x00, 0x00,
  0x04, 0x00, 0x00, 0x00, 0x7c, 0xfa, 0xff, 0xff, 0x4c, 0x00, 0x00, 0x00,
  0x04, 0x00, 0x00, 0x00, 0x08, 0x00, 0x00, 0x00, 0x00, 0x00, 0x00, 0x00,
  0x00, 0x00, 0x00, 0x00, 0x00, 0x00, 0x00, 0x00, 0x00, 0x00, 0x00, 0x00,
  0x00, 0x00, 0x00, 0x00, 0x00, 0x00, 0x00, 0x00, 0x00, 0x00, 0x00, 0x00,
  0x00, 0x00, 0x00, 0x00, 0x00, 0x00, 0x00, 0x00, 0x00, 0x00, 0x00, 0x00,
  0x00, 0x00, 0x00, 0x00, 0x00, 0x00, 0x00, 0x00, 0x00, 0x00, 0x00, 0x00,
  0x00, 0x00, 0x00, 0x00, 0x00, 0x00, 0x00, 0x00, 0x00, 0x00, 0x00, 0x00,
  0x08, 0x00, 0x00, 0x00, 0x8e, 0xfa, 0xb2, 0x39, 0x48, 0xb3, 0x7b, 0x39,
  0x96, 0x73, 0xc4, 0x39, 0x13, 0x28, 0x83, 0x39, 0x41, 0x71, 0xad, 0x39,
  0x48, 0xc8, 0x8b, 0x39, 0x17, 0xa0, 0x83, 0x39, 0x99, 0x85, 0x90, 0x39,
  0x13, 0x00, 0x00, 0x00, 0x73, 0x65, 0x63, 0x6f, 0x6e, 0x64, 0x5f, 0x77,
  0x65, 0x69, 0x67, 0x68, 0x74, 0x73, 0x2f, 0x72, 0x65, 0x61, 0x64, 0x00,
  0x04, 0x00, 0x00, 0x00, 0x08, 0x00, 0x00, 0x00, 0x0a, 0x00, 0x00, 0x00,
  0x08, 0x00, 0x00, 0x00, 0x08, 0x00, 0x00, 0x00, 0x00, 0x00, 0x0e, 0x00,
  0x1a, 0x00, 0x08, 0x00, 0x07, 0x00, 0x0c, 0x00, 0x10, 0x00, 0x14, 0x00,
  0x0e, 0x00, 0x00, 0x00, 0x00, 0x00, 0x00, 0x09, 0xb4, 0x00, 0x00, 0x00,
  0x0b, 0x00, 0x00, 0x00, 0x94, 0x00, 0x00, 0x00, 0x18, 0x00, 0x00, 0x00,
  0x00, 0x00, 0x12, 0x00, 0x10, 0x00, 0x00, 0x00, 0x00, 0x00, 0x04, 0x00,
  0x08, 0x00, 0x00, 0x00, 0x00, 0x00, 0x0c, 0x00, 0x12, 0x00, 0x00, 0x00,
  0x50, 0x00, 0x00, 0x00, 0x08, 0x00, 0x00, 0x00, 0x03, 0x00, 0x00, 0x00,
  0x08, 0x00, 0x00, 0x00, 0x00, 0x00, 0x00, 0x00, 0x00, 0x00, 0x00, 0x00,
  0x00, 0x00, 0x00, 0x00, 0x00, 0x00, 0x00, 0x00, 0x00, 0x00, 0x00, 0x00,
  0x00, 0x00, 0x00, 0x00, 0x00, 0x00, 0x00, 0x00, 0x00, 0x00, 0x00, 0x00,
  0x00, 0x00, 0x00, 0x00, 0x00, 0x00, 0x00, 0x00, 0x00, 0x00, 0x00, 0x00,
  0x00, 0x00, 0x00, 0x00, 0x00, 0x00, 0x00, 0x00, 0x00, 0x00, 0x00, 0x00,
  0x00, 0x00, 0x00, 0x00, 0x00, 0x00, 0x00, 0x00, 0x08, 0x00, 0x00, 0x00,
  0x72, 0x4c, 0x58, 0x39, 0x75, 0xa0, 0x60, 0x39, 0xe5, 0x15, 0x80, 0x39,
  0x0d, 0x78, 0x57, 0x39, 0x00, 0x58, 0x81, 0x39, 0x02, 0xa1, 0x7b, 0x39,
  0xd5, 0x80, 0x59, 0x39, 0xb9, 0x5a, 0x53, 0x39, 0x12, 0x00, 0x00, 0x00,
  0x66, 0x69, 0x72, 0x73, 0x74, 0x5f, 0x77, 0x65, 0x69, 0x67, 0x68, 0x74,
  0x73, 0x2f, 0x72, 0x65, 0x61, 0x64, 0x00, 0x00, 0x04, 0x00, 0x00, 0x00,
  0x01, 0x00, 0x00, 0x00, 0x0a, 0x00, 0x00, 0x00, 0x08, 0x00, 0x00, 0x00,
  0x08, 0x00, 0x00, 0x00, 0x22, 0xfc, 0xff, 0xff, 0x00, 0x00, 0x00, 0x09,
  0x54, 0x00, 0x00, 0x00, 0x01, 0x00, 0x00, 0x00, 0x28, 0x00, 0x00, 0x00,
  0x04, 0x00, 0x00, 0x00, 0x14, 0xfc, 0xff, 0xff, 0x14, 0x00, 0x00, 0x00,
  0x04, 0x00, 0x00, 0x00, 0x01, 0x00, 0x00, 0x00, 0x00, 0x00, 0x00, 0x00,
  0x00, 0x00, 0x00, 0x00, 0x01, 0x00, 0x00, 0x00, 0x49, 0xe0, 0xb6, 0x39,
  0x1f, 0x00, 0x00, 0x00, 0x66, 0x69, 0x6e, 0x61, 0x6c, 0x5f, 0x66, 0x63,
  0x5f, 0x77, 0x65, 0x69, 0x67, 0x68, 0x74, 0x73, 0x2f, 0x72, 0x65, 0x61,
  0x64, 0x2f, 0x74, 0x72, 0x61, 0x6e, 0x73, 0x70, 0x6f, 0x73, 0x65, 0x00,
  0x02, 0x00, 0x00, 0x00, 0x14, 0x00, 0x00, 0x00, 0x60, 0x00, 0x00, 0x00,
  0x8a, 0xfc, 0xff, 0xff, 0x00, 0x00, 0x00, 0x09, 0x58, 0x00, 0x00, 0x00,
  0x05, 0x00, 0x00, 0x00, 0x44, 0x00, 0x00, 0x00, 0x04, 0x00, 0x00, 0x00,
  0xfc, 0xfd, 0xff, 0xff, 0x30, 0x00, 0x00, 0x00, 0x24, 0x00, 0x00, 0x00,
  0x18, 0x00, 0x00, 0x00, 0x04, 0x00, 0x00, 0x00, 0x01, 0x00, 0x00, 0x00,
  0xf3, 0xff, 0xff, 0xff, 0xff, 0xff, 0xff, 0xff, 0x00, 0x00, 0x00, 0x00,
  0x01, 0x00, 0x00, 0x00, 0x39, 0xf7, 0xbc, 0x3b, 0x01, 0x00, 0x00, 0x00,
  0xf3, 0x60, 0x4f, 0x3f, 0x01, 0x00, 0x00, 0x00, 0x92, 0x13, 0x29, 0xbf,
  0x05, 0x00, 0x00, 0x00, 0x61, 0x64, 0x64, 0x5f, 0x32, 0x00, 0x00, 0x00,
  0x02, 0x00, 0x00, 0x00, 0x01, 0x00, 0x00, 0x00, 0x14, 0x00, 0x00, 0x00,
  0xf6, 0xfc, 0xff, 0xff, 0x00, 0x00, 0x00, 0x02, 0x2c, 0x00, 0x00, 0x00,
  0x0c, 0x00, 0x00, 0x00, 0x10, 0x00, 0x00, 0x00, 0x08, 0x00, 0x00, 0x00,
  0x04, 0x00, 0x04, 0x00, 0x04, 0x00, 0x00, 0x00, 0x0f, 0x00, 0x00, 0x00,
  0x52, 0x65, 0x73, 0x68, 0x61, 0x70, 0x65, 0x5f, 0x32, 0x2f, 0x73, 0x68,
  0x61, 0x70, 0x65, 0x00, 0x01, 0x00, 0x00, 0x00, 0x04, 0x00, 0x00, 0x00,
  0x32, 0xfd, 0xff, 0xff, 0x00, 0x00, 0x00, 0x09, 0x5c, 0x00, 0x00, 0x00,
  0x09, 0x00, 0x00, 0x00, 0x44, 0x00, 0x00, 0x00, 0x04, 0x00, 0x00, 0x00,
  0xa4, 0xfe, 0xff, 0xff, 0x30, 0x00, 0x00, 0x00, 0x24, 0x00, 0x00, 0x00,
  0x18, 0x00, 0x00, 0x00, 0x04, 0x00, 0x00, 0x00, 0x01, 0x00, 0x00, 0x00,
  0x80, 0xff, 0xff, 0xff, 0xff, 0xff, 0xff, 0xff, 0x00, 0x00, 0x00, 0x00,
  0x01, 0x00, 0x00, 0x00, 0x5f, 0x5f, 0xcf, 0x3d, 0x01, 0x00, 0x00, 0x00,
  0x00, 0x90, 0xce, 0x41, 0x01, 0x00, 0x00, 0x00, 0x00, 0x00, 0x00, 0x00,
  0x09, 0x00, 0x00, 0x00, 0x52, 0x65, 0x73, 0x68, 0x61, 0x70, 0x65, 0x5f,
  0x32, 0x00, 0x00, 0x00, 0x04, 0x00, 0x00, 0x00, 0x01, 0x00, 0x00, 0x00,
  0x31, 0x00, 0x00, 0x00, 0x28, 0x00, 0x00, 0x00, 0x01, 0x00, 0x00, 0x00,
  0xaa, 0xfd, 0xff, 0xff, 0x00, 0x00, 0x00, 0x09, 0x5c, 0x00, 0x00, 0x00,
  0x0a, 0x00, 0x00, 0x00, 0x44, 0x00, 0x00, 0x00, 0x04, 0x00, 0x00, 0x00,
  0x1c, 0xff, 0xff, 0xff, 0x30, 0x00, 0x00, 0x00, 0x24, 0x00, 0x00, 0x00,
  0x18, 0x00, 0x00, 0x00, 0x04, 0x00, 0x00, 0x00, 0x01, 0x00, 0x00, 0x00,
  0x80, 0xff, 0xff, 0xff, 0xff, 0xff, 0xff, 0xff, 0x00, 0x00, 0x00, 0x00,
  0x01, 0x00, 0x00, 0x00, 0x5f, 0x5f, 0xcf, 0x3d, 0x01, 0x00, 0x00, 0x00,
  0x00, 0x90, 0xce, 0x41, 0x01, 0x00, 0x00, 0x00, 0x00, 0x00, 0x00, 0x00,
  0x09, 0x00, 0x00, 0x00, 0x52, 0x65, 0x73, 0x68, 0x61, 0x70, 0x65, 0x5f,
  0x31, 0x00, 0x00, 0x00, 0x02, 0x00, 0x00, 0x00, 0x01, 0x00, 0x00, 0x00,
  0xa8, 0x07, 0x00, 0x00, 0x1a, 0xfe, 0xff, 0xff, 0x00, 0x00, 0x00, 0x09,
  0x58, 0x00, 0x00, 0x00, 0x08, 0x00, 0x00, 0x00, 0x44, 0x00, 0x00, 0x00,
  0x04, 0x00, 0x00, 0x00, 0x8c, 0xff, 0xff, 0xff, 0x30, 0x00, 0x00, 0x00,
  0x24, 0x00, 0x00, 0x00, 0x18, 0x00, 0x00, 0x00, 0x04, 0x00, 0x00, 0x00,
  0x01, 0x00, 0x00, 0x00, 0x80, 0xff, 0xff, 0xff, 0xff, 0xff, 0xff, 0xff,
  0x00, 0x00, 0x00, 0x00, 0x01, 0x00, 0x00, 0x00, 0xda, 0x23, 0x6c, 0x3d,
  0x01, 0x00, 0x00, 0x00, 0xb6, 0x37, 0x6b, 0x41, 0x01, 0x00, 0x00, 0x00,
  0x00, 0x00, 0x00, 0x00, 0x06, 0x00, 0x00, 0x00, 0x52, 0x65, 0x6c, 0x75,
  0x5f, 0x31, 0x00, 0x00, 0x04, 0x00, 0x00, 0x00, 0x01, 0x00, 0x00, 0x00,
  0x04, 0x00, 0x00, 0x00, 0x03, 0x00, 0x00, 0x00, 0x08, 0x00, 0x00, 0x00,
  0x8e, 0xfe, 0xff, 0xff, 0x00, 0x00, 0x00, 0x09, 0x60, 0x00, 0x00, 0x00,
  0x07, 0x00, 0x00, 0x00, 0x4c, 0x00, 0x00, 0x00, 0x10, 0x00, 0x00, 0x00,
  0x0c, 0x00, 0x14, 0x00, 0x04, 0x00, 0x08, 0x00, 0x0c, 0x00, 0x10, 0x00,
  0x0c, 0x00, 0x00, 0x00, 0x2c, 0x00, 0x00, 0x00, 0x20, 0x00, 0x00, 0x00,
  0x14, 0x00, 0x00, 0x00, 0x04, 0x00, 0x00, 0x00, 0x01, 0x00, 0x00, 0x00,
  0x80, 0xff, 0xff, 0xff, 0xff, 0xff, 0xff, 0xff, 0x01, 0x00, 0x00, 0x00,
  0xf2, 0xbc, 0x59, 0x3d, 0x01, 0x00, 0x00, 0x00, 0x35, 0xe3, 0x58, 0x41,
  0x01, 0x00, 0x00, 0x00, 0x00, 0x00, 0x00, 0x00, 0x04, 0x00, 0x00, 0x00,
  0x52, 0x65, 0x6c, 0x75, 0x00, 0x00, 0x00, 0x00, 0x04, 0x00, 0x00, 0x00,
  0x01, 0x00, 0x00, 0x00, 0x19, 0x00, 0x00, 0x00, 0x14, 0x00, 0x00, 0x00,
  0x08, 0x00, 0x00, 0x00, 0x0a, 0xff, 0xff, 0xff, 0x00, 0x00, 0x00, 0x02,
  0x40, 0x00, 0x00, 0x00, 0x02, 0x00, 0x00, 0x00, 0x28, 0x00, 0x00, 0x00,
  0x04, 0x00, 0x00, 0x00, 0xfc, 0xfe, 0xff, 0xff, 0x14, 0x00, 0x00, 0x00,
  0x04, 0x00, 0x00, 0x00, 0x01, 0x00, 0x00, 0x00, 0x00, 0x00, 0x00, 0x00,
  0x00, 0x00, 0x00, 0x00, 0x01, 0x00, 0x00, 0x00, 0x60, 0xb0, 0xa8, 0x37,
  0x0b, 0x00, 0x00, 0x00, 0x4d, 0x61, 0x74, 0x4d, 0x75, 0x6c, 0x5f, 0x62,
  0x69, 0x61, 0x73, 0x00, 0x01, 0x00, 0x00, 0x00, 0x14, 0x00, 0x00, 0x00,
  0x5a, 0xff, 0xff, 0xff, 0x00, 0x00, 0x00, 0x02, 0x94, 0x00, 0x00, 0x00,
  0x06, 0x00, 0x00, 0x00, 0x7c, 0x00, 0x00, 0x00, 0x04, 0x00, 0x00, 0x00,
  0x4c, 0xff, 0xff, 0xff, 0x4c, 0x00, 0x00, 0x00, 0x04, 0x00, 0x00, 0x00,
  0x08, 0x00, 0x00, 0x00, 0x00, 0x00, 0x00, 0x00, 0x00, 0x00, 0x00, 0x00,
  0x00, 0x00, 0x00, 0x00, 0x00, 0x00, 0x00, 0x00, 0x00, 0x00, 0x00, 0x00,
  0x00, 0x00, 0x00, 0x00, 0x00, 0x00, 0x00, 0x00, 0x00, 0x00, 0x00, 0x00,
  0x00, 0x00, 0x00, 0x00, 0x00, 0x00, 0x00, 0x00, 0x00, 0x00, 0x00, 0x00,
  0x00, 0x00, 0x00, 0x00, 0x00, 0x00, 0x00, 0x00, 0x00, 0x00, 0x00, 0x00,
  0x00, 0x00, 0x00, 0x00, 0x00, 0x00, 0x00, 0x00, 0x08, 0x00, 0x00, 0x00,
  0x65, 0x36, 0xaf, 0x37, 0x6e, 0xf5, 0xb5, 0x37, 0xd8, 0x82, 0xcf, 0x37,
  0x58, 0x8a, 0xae, 0x37, 0xaf, 0x8c, 0xd1, 0x37, 0xef, 0xd4, 0xcb, 0x37,
  0x34, 0x30, 0xb0, 0x37, 0x19, 0x35, 0xab, 0x37, 0x0b, 0x00, 0x00, 0x00,
  0x43, 0x6f, 0x6e, 0x76, 0x32, 0x44, 0x5f, 0x62, 0x69, 0x61, 0x73, 0x00,
  0x01, 0x00, 0x00, 0x00, 0x08, 0x00, 0x00, 0x00, 0x00, 0x00, 0x0e, 0x00,
  0x18, 0x00, 0x08, 0x00, 0x07, 0x00, 0x0c, 0x00, 0x10, 0x00, 0x14, 0x00,
  0x0e, 0x00, 0x00, 0x00, 0x00, 0x00, 0x00, 0x02, 0xa4, 0x00, 0x00, 0x00,
  0x03, 0x00, 0x00, 0x00, 0x88, 0x00, 0x00, 0x00, 0x10, 0x00, 0x00, 0x00,
  0x0c, 0x00, 0x0c, 0x00, 0x00, 0x00, 0x00, 0x00, 0x04, 0x00, 0x08, 0x00,
  0x0c, 0x00, 0x00, 0x00, 0x4c, 0x00, 0x00, 0x00, 0x04, 0x00, 0x00, 0x00,
  0x08, 0x00, 0x00, 0x00, 0x00, 0x00, 0x00, 0x00, 0x00, 0x00, 0x00, 0x00,
  0x00, 0x00, 0x00, 0x00, 0x00, 0x00, 0x00, 0x00, 0x00, 0x00, 0x00, 0x00,
  0x00, 0x00, 0x00, 0x00, 0x00, 0x00, 0x00, 0x00, 0x00, 0x00, 0x00, 0x00,
  0x00, 0x00, 0x00, 0x00, 0x00, 0x00, 0x00, 0x00, 0x00, 0x00, 0x00, 0x00,
  0x00, 0x00, 0x00, 0x00, 0x00, 0x00, 0x00, 0x00, 0x00, 0x00, 0x00, 0x00,
  0x00, 0x00, 0x00, 0x00, 0x00, 0x00, 0x00, 0x00, 0x08, 0x00, 0x00, 0x00,
  0x7c, 0x3a, 0x98, 0x37, 0xbe, 0x14, 0x56, 0x37, 0xf9, 0x16, 0xa7, 0x37,
  0x8b, 0x1b, 0x5f, 0x37, 0x03, 0x85, 0x93, 0x37, 0xe1, 0xc7, 0x6d, 0x37,
  0xb3, 0xe7, 0x5f, 0x37, 0xd3, 0xd7, 0x75, 0x37, 0x0d, 0x00, 0x00, 0x00,
  0x43, 0x6f, 0x6e, 0x76, 0x32, 0x44, 0x5f, 0x31, 0x5f, 0x62, 0x69, 0x61,
  0x73, 0x00, 0x00, 0x00, 0x01, 0x00, 0x00, 0x00, 0x08, 0x00, 0x00, 0x00,
  0x04, 0x00, 0x00, 0x00, 0x50, 0x00, 0x00, 0x00, 0x34, 0x00, 0x00, 0x00,
  0x18, 0x00, 0x00, 0x00, 0x0c, 0x00, 0x00, 0x00, 0x00, 0x00, 0x06, 0x00,
  0x08, 0x00, 0x07, 0x00, 0x06, 0x00, 0x00, 0x00, 0x00, 0x00, 0x00, 0x16,
  0xf2, 0xff, 0xff, 0xff, 0x00, 0x00, 0x00, 0x09, 0x04, 0x00, 0x00, 0x00,
  0x00, 0x00, 0x0a, 0x00, 0x0e, 0x00, 0x07, 0x00, 0x00, 0x00, 0x08, 0x00,
  0x0a, 0x00, 0x00, 0x00, 0x00, 0x00, 0x00, 0x04, 0x03, 0x00, 0x00, 0x00,
  0x00, 0x00, 0x0a, 0x00, 0x0c, 0x00, 0x07, 0x00, 0x00, 0x00, 0x08, 0x00,
  0x0a, 0x00, 0x00, 0x00, 0x00, 0x00, 0x00, 0x03, 0x03, 0x00, 0x00, 0x00
};
const int g_model_len = 10296;
