unsigned char _Users_philipmateopfeffer_Desktop_stanford_Y5Q1_cs329e_edna_mode_demo_frozen_models_tiny_embedding_conv_ckpt_200_model_tflite[] = {
  0x1c, 0x00, 0x00, 0x00, 0x54, 0x46, 0x4c, 0x33, 0x00, 0x00, 0x12, 0x00,
  0x1c, 0x00, 0x04, 0x00, 0x08, 0x00, 0x0c, 0x00, 0x10, 0x00, 0x14, 0x00,
  0x00, 0x00, 0x18, 0x00, 0x12, 0x00, 0x00, 0x00, 0x03, 0x00, 0x00, 0x00,
  0x54, 0x2d, 0x00, 0x00, 0x54, 0x25, 0x00, 0x00, 0x3c, 0x25, 0x00, 0x00,
  0x3c, 0x00, 0x00, 0x00, 0x04, 0x00, 0x00, 0x00, 0x01, 0x00, 0x00, 0x00,
  0x0c, 0x00, 0x00, 0x00, 0x08, 0x00, 0x0c, 0x00, 0x04, 0x00, 0x08, 0x00,
  0x08, 0x00, 0x00, 0x00, 0x08, 0x00, 0x00, 0x00, 0x0d, 0x00, 0x00, 0x00,
  0x13, 0x00, 0x00, 0x00, 0x6d, 0x69, 0x6e, 0x5f, 0x72, 0x75, 0x6e, 0x74,
  0x69, 0x6d, 0x65, 0x5f, 0x76, 0x65, 0x72, 0x73, 0x69, 0x6f, 0x6e, 0x00,
  0x0e, 0x00, 0x00, 0x00, 0xf4, 0x24, 0x00, 0x00, 0xc4, 0x17, 0x00, 0x00,
  0x64, 0x17, 0x00, 0x00, 0x34, 0x17, 0x00, 0x00, 0x24, 0x03, 0x00, 0x00,
  0x1c, 0x03, 0x00, 0x00, 0xec, 0x02, 0x00, 0x00, 0xe4, 0x02, 0x00, 0x00,
  0xdc, 0x02, 0x00, 0x00, 0xd4, 0x02, 0x00, 0x00, 0xcc, 0x02, 0x00, 0x00,
  0x3c, 0x00, 0x00, 0x00, 0x1c, 0x00, 0x00, 0x00, 0x04, 0x00, 0x00, 0x00,
  0xe2, 0xd9, 0xff, 0xff, 0x04, 0x00, 0x00, 0x00, 0x05, 0x00, 0x00, 0x00,
  0x31, 0x2e, 0x35, 0x2e, 0x30, 0x00, 0x00, 0x00, 0xf6, 0xd9, 0xff, 0xff,
  0x04, 0x00, 0x00, 0x00, 0x10, 0x00, 0x00, 0x00, 0xff, 0xff, 0xff, 0xff,
  0x62, 0x00, 0x00, 0x00, 0x28, 0x00, 0x00, 0x00, 0x01, 0x00, 0x00, 0x00,
  0x12, 0xda, 0xff, 0xff, 0x04, 0x00, 0x00, 0x00, 0x80, 0x02, 0x00, 0x00,
  0xaa, 0x13, 0x3e, 0x11, 0x3d, 0xfd, 0x21, 0x4f, 0xeb, 0xf8, 0x0c, 0xf9,
  0xb9, 0xf1, 0xd7, 0xd0, 0xdf, 0xcf, 0x02, 0x48, 0x07, 0xeb, 0xbc, 0x6b,
  0xa7, 0xc9, 0x9c, 0x19, 0xcf, 0xb9, 0x97, 0xd4, 0x2c, 0xf9, 0xfe, 0xdb,
  0xac, 0x09, 0xc8, 0x48, 0x2c, 0x89, 0xf6, 0x3d, 0x21, 0xed, 0xbc, 0xf5,
  0x1a, 0xa8, 0xf1, 0x25, 0xe3, 0xc5, 0xbc, 0x65, 0xde, 0x98, 0x81, 0xd0,
  0xdd, 0xcd, 0x05, 0xf6, 0xf0, 0x22, 0x27, 0x02, 0x47, 0x17, 0x01, 0x4a,
  0xfa, 0x2b, 0x5c, 0x6b, 0xbc, 0x99, 0xd8, 0x19, 0xe4, 0x30, 0x10, 0x57,
  0xfc, 0x04, 0xdc, 0x2c, 0xec, 0x03, 0x07, 0x10, 0x9c, 0xdc, 0xcc, 0x55,
  0x2c, 0xe1, 0x2f, 0xe6, 0x08, 0xa0, 0xa3, 0x47, 0xa0, 0xb9, 0xe0, 0xfb,
  0xc7, 0x15, 0x20, 0xe8, 0xc3, 0xb0, 0xf7, 0x6a, 0x81, 0xa0, 0x03, 0x45,
  0xea, 0xbb, 0xb3, 0x00, 0xf2, 0xa4, 0xd9, 0x41, 0xdb, 0xee, 0x02, 0xf1,
  0x32, 0x17, 0xc7, 0xe2, 0xaf, 0x32, 0x17, 0x57, 0x2f, 0x19, 0xd7, 0xc2,
  0xf0, 0x01, 0xf5, 0xf0, 0x51, 0xdf, 0x81, 0x6f, 0xf3, 0x30, 0xd9, 0x49,
  0x9f, 0xba, 0x91, 0x0e, 0x0e, 0xe2, 0xfd, 0xfd, 0xac, 0x09, 0xea, 0x4e,
  0xc4, 0xa9, 0xe0, 0xf3, 0xee, 0xf5, 0xc7, 0x29, 0xfb, 0xa6, 0x64, 0x14,
  0x28, 0x3a, 0x3f, 0x1f, 0xd7, 0xd5, 0xfd, 0xdd, 0x2f, 0xe0, 0x8b, 0x31,
  0xbe, 0x24, 0x20, 0xd6, 0xda, 0xec, 0x99, 0x1a, 0xf7, 0xc2, 0x40, 0x3d,
  0x56, 0xe0, 0xdb, 0xf8, 0x23, 0x45, 0x1a, 0xff, 0xea, 0xde, 0x2f, 0x1e,
  0x19, 0x0a, 0xde, 0x33, 0xf7, 0xfe, 0xcd, 0xc4, 0xfd, 0x26, 0x06, 0xc9,
  0xf7, 0x39, 0x92, 0x7e, 0xee, 0xa1, 0xd1, 0xdc, 0xfb, 0x00, 0xd0, 0x2b,
  0x0e, 0xb2, 0xea, 0x3c, 0xff, 0xfd, 0x1a, 0xc5, 0x18, 0xc4, 0xf7, 0x3e,
  0xec, 0xc5, 0x91, 0xf0, 0x30, 0x27, 0x67, 0x14, 0x0d, 0x99, 0x0e, 0x18,
  0x03, 0xd2, 0xb9, 0x02, 0x29, 0xc8, 0xcd, 0xe0, 0xeb, 0x0f, 0x37, 0xf8,
  0x21, 0x25, 0xe1, 0xeb, 0xd4, 0xd4, 0x06, 0x65, 0xfb, 0xe2, 0x14, 0xb8,
  0x14, 0x30, 0x41, 0x50, 0xe7, 0x3b, 0xd4, 0x34, 0xbc, 0xb2, 0x2d, 0xd8,
  0xdf, 0x3f, 0x01, 0x57, 0x39, 0xbd, 0x0d, 0xff, 0xbb, 0xf6, 0x2a, 0x61,
  0xfa, 0x22, 0x9c, 0xe2, 0x06, 0x8a, 0x38, 0x39, 0x09, 0x0d, 0x49, 0x20,
  0xf1, 0xef, 0xee, 0x26, 0xd2, 0x20, 0xc9, 0x09, 0x0d, 0xd9, 0xf6, 0xc7,
  0xe0, 0x01, 0x0d, 0xff, 0xb8, 0x08, 0x96, 0xf4, 0xd0, 0x14, 0x13, 0x57,
  0x0c, 0xc6, 0xd5, 0x07, 0xbc, 0x4c, 0x2a, 0xff, 0xe3, 0x16, 0x9b, 0xef,
  0xaa, 0x29, 0x36, 0xed, 0xf8, 0x18, 0x06, 0xfc, 0xcc, 0x19, 0x30, 0xdd,
  0xe5, 0xfc, 0xf6, 0x60, 0xd3, 0xe4, 0xcb, 0xe3, 0x08, 0xeb, 0x02, 0x16,
  0xe7, 0x2e, 0x21, 0xaf, 0x09, 0x18, 0xf6, 0x0b, 0x98, 0xff, 0xed, 0xd6,
  0x97, 0xe0, 0xa3, 0x19, 0xae, 0x7d, 0x34, 0x39, 0xe1, 0xe2, 0x20, 0x07,
  0xaa, 0x59, 0x0a, 0xcb, 0x1f, 0xc6, 0xec, 0x35, 0x11, 0x50, 0x04, 0xb0,
  0x36, 0xd9, 0xaf, 0x03, 0xd9, 0xf5, 0x0d, 0xfa, 0xdb, 0xc9, 0x01, 0x17,
  0x84, 0xf8, 0x1a, 0xeb, 0xd0, 0xda, 0xb8, 0x6a, 0xf6, 0x0a, 0x12, 0x00,
  0xe0, 0x0e, 0x04, 0x2f, 0x1b, 0x2c, 0xd1, 0x0f, 0xbb, 0xf4, 0x32, 0x35,
  0xc1, 0xe3, 0xe0, 0x0b, 0xfb, 0xfa, 0xaf, 0xe1, 0x04, 0x55, 0x51, 0xee,
  0x00, 0x1d, 0x0d, 0xe6, 0xbe, 0x20, 0xf5, 0x93, 0xb4, 0xeb, 0x2d, 0xdc,
  0xcb, 0x1f, 0x0d, 0xd3, 0xe9, 0xb6, 0xdb, 0xd4, 0xc6, 0x36, 0xc8, 0x95,
  0xf1, 0xbd, 0x0a, 0x0c, 0x1b, 0xf3, 0xd9, 0xe5, 0xdd, 0xc1, 0xe4, 0x1a,
  0x1b, 0xf5, 0x0c, 0x05, 0xc3, 0xc7, 0x3b, 0x0b, 0x1f, 0x36, 0xba, 0x95,
  0x12, 0xf0, 0x4e, 0xd3, 0xe6, 0xe4, 0x2c, 0x1e, 0xfe, 0xb7, 0xd3, 0xa3,
  0x0b, 0x3b, 0x09, 0xb5, 0xf9, 0xd3, 0x05, 0xd3, 0x28, 0x45, 0x24, 0xdf,
  0xdb, 0x1b, 0x05, 0xd0, 0x82, 0x3e, 0x49, 0xac, 0xdd, 0xf7, 0x1f, 0x10,
  0xc4, 0x1a, 0x07, 0xe1, 0xea, 0xd8, 0x02, 0x03, 0xb2, 0x20, 0xc7, 0xfe,
  0x0e, 0xcd, 0x0b, 0xc7, 0xba, 0x04, 0x00, 0xe6, 0xf0, 0x24, 0xd5, 0x11,
  0xd3, 0x7f, 0x16, 0xd7, 0xe8, 0xbd, 0x2e, 0xa5, 0x81, 0x26, 0xcb, 0x20,
  0xf5, 0xc8, 0x2d, 0xc5, 0x24, 0x41, 0x11, 0x81, 0x08, 0xe5, 0x26, 0x81,
  0xe0, 0x36, 0xd8, 0xbf, 0xc4, 0xfe, 0xba, 0xff, 0xe8, 0x4a, 0xe1, 0x9f,
  0xa8, 0xeb, 0x0e, 0xa1, 0x01, 0xe8, 0xad, 0xf7, 0xd0, 0xdb, 0xe3, 0xc2,
  0xdc, 0x52, 0x13, 0x13, 0xe1, 0xf4, 0xf4, 0xc3, 0xde, 0xf9, 0x9e, 0x07,
  0xf3, 0x81, 0xd4, 0xa1, 0xa0, 0xd9, 0xff, 0xff, 0xa4, 0xd9, 0xff, 0xff,
  0xa8, 0xd9, 0xff, 0xff, 0xac, 0xd9, 0xff, 0xff, 0xae, 0xdc, 0xff, 0xff,
  0x04, 0x00, 0x00, 0x00, 0x20, 0x00, 0x00, 0x00, 0xa2, 0xff, 0xff, 0xff,
  0x87, 0xfd, 0xff, 0xff, 0xde, 0xf9, 0xff, 0xff, 0x0c, 0x00, 0x00, 0x00,
  0x7a, 0xff, 0xff, 0xff, 0x76, 0xfe, 0xff, 0xff, 0xf6, 0x01, 0x00, 0x00,
  0xf7, 0xf9, 0xff, 0xff, 0xdc, 0xd9, 0xff, 0xff, 0xde, 0xdc, 0xff, 0xff,
  0x04, 0x00, 0x00, 0x00, 0x00, 0x14, 0x00, 0x00, 0xf4, 0xdc, 0x21, 0xf6,
  0xdd, 0xd4, 0xd7, 0x02, 0xee, 0xea, 0x25, 0x0f, 0xd6, 0x01, 0x2b, 0x37,
  0x16, 0xf0, 0x35, 0xa2, 0xf3, 0xdf, 0x26, 0x27, 0x0c, 0x81, 0x3a, 0x00,
  0x04, 0x04, 0x32, 0x33, 0xe6, 0x0a, 0x24, 0xed, 0xdc, 0xe6, 0xec, 0xe3,
  0xf0, 0x23, 0x14, 0x34, 0xe9, 0x2c, 0x04, 0x35, 0xf8, 0xd7, 0x1e, 0x16,
  0x11, 0xdf, 0x20, 0x32, 0xf9, 0xd0, 0x58, 0xe7, 0x0f, 0x06, 0x30, 0xf2,
  0xd9, 0xd2, 0xf9, 0xfe, 0xf0, 0xe5, 0xd5, 0x30, 0xe1, 0xcc, 0x06, 0x05,
  0x02, 0xdb, 0xd7, 0x05, 0xfc, 0xd2, 0x25, 0x07, 0xed, 0xfb, 0xe7, 0x06,
  0x1d, 0xed, 0x11, 0x2d, 0xe5, 0xf8, 0x14, 0x43, 0x2d, 0x17, 0x25, 0xe7,
  0x25, 0x03, 0xe3, 0x0f, 0x07, 0xd6, 0x54, 0xf5, 0xe2, 0x27, 0xe3, 0x1f,
  0xfb, 0xc4, 0xf3, 0xec, 0xe8, 0x03, 0xe8, 0xf6, 0xd5, 0xcf, 0x33, 0xf6,
  0xe7, 0x36, 0xf3, 0x04, 0x21, 0xcf, 0x1b, 0x2a, 0xf6, 0xfe, 0xf0, 0x2f,
  0x1a, 0xde, 0xd0, 0x4e, 0xe2, 0x00, 0xdf, 0x1f, 0xfb, 0xcc, 0x25, 0x27,
  0xdf, 0xef, 0x14, 0x0a, 0xf1, 0xee, 0x2f, 0x3c, 0x06, 0x02, 0xbd, 0x08,
  0x1f, 0xea, 0x06, 0x28, 0x08, 0x1b, 0xed, 0xe8, 0x06, 0xfc, 0xf6, 0xdd,
  0xe6, 0x0e, 0x11, 0x1f, 0xe7, 0xe4, 0xe5, 0x0d, 0xec, 0x05, 0xf0, 0x0a,
  0xe9, 0x2a, 0x04, 0x31, 0x03, 0xfa, 0xe5, 0x2f, 0x01, 0xfe, 0xe6, 0xdb,
  0xf7, 0x00, 0xd4, 0xff, 0xda, 0x9b, 0x27, 0x42, 0xfa, 0xd3, 0x10, 0x03,
  0xc0, 0x06, 0xf4, 0x2d, 0x18, 0xf7, 0xf9, 0x14, 0x03, 0x09, 0xf7, 0x55,
  0xca, 0xd8, 0xdb, 0x13, 0x11, 0xb0, 0x1b, 0x3d, 0xd3, 0x29, 0xe3, 0x40,
  0x0d, 0xf3, 0x18, 0x59, 0xfa, 0x1d, 0x02, 0x22, 0xff, 0x06, 0x38, 0x44,
  0xdb, 0x0d, 0xee, 0x0f, 0x0d, 0xfb, 0xfe, 0x18, 0xff, 0x21, 0xee, 0x18,
  0xf1, 0xa1, 0xff, 0x15, 0x0d, 0xe6, 0xc9, 0x3a, 0xff, 0x26, 0xea, 0x52,
  0xdf, 0xea, 0xd8, 0x2c, 0x0c, 0x00, 0x15, 0x45, 0xc9, 0xdf, 0x1d, 0x00,
  0x29, 0xb3, 0x27, 0xde, 0x1d, 0xe8, 0xef, 0x0e, 0x13, 0x19, 0x25, 0x26,
  0xfe, 0x04, 0x10, 0xdb, 0x0d, 0xe3, 0x18, 0xfb, 0x3d, 0x1a, 0x06, 0xe3,
  0x19, 0x0b, 0x2d, 0x46, 0x0f, 0xf8, 0xd5, 0x33, 0xf1, 0x59, 0x3b, 0x00,
  0x0a, 0x02, 0x36, 0x1c, 0x09, 0xeb, 0xfa, 0x1a, 0xd0, 0xdf, 0x1a, 0xf1,
  0x1d, 0x2c, 0xef, 0x1b, 0x0b, 0x22, 0xda, 0x16, 0x02, 0xea, 0x05, 0x10,
  0x16, 0x0c, 0x04, 0x16, 0x04, 0x07, 0xee, 0x14, 0x19, 0x1e, 0x02, 0x14,
  0x34, 0xf5, 0x41, 0xff, 0xe6, 0x04, 0xd6, 0x08, 0xeb, 0x44, 0x2f, 0x10,
  0x25, 0x09, 0x02, 0xd4, 0xc1, 0x1e, 0x26, 0xef, 0x19, 0xe7, 0xef, 0x16,
  0xfa, 0x4d, 0xfd, 0x32, 0xf1, 0x25, 0x04, 0x1f, 0x05, 0xf7, 0x16, 0xe1,
  0x16, 0xde, 0xed, 0x07, 0xf5, 0xf8, 0x1d, 0xbd, 0xda, 0x1f, 0xf8, 0x0a,
  0x0c, 0xf3, 0xf2, 0xcd, 0xea, 0xf8, 0xf8, 0x13, 0x16, 0x3a, 0x03, 0x05,
  0xf2, 0xf9, 0xf2, 0xd0, 0xfe, 0x20, 0xf3, 0xde, 0x0d, 0xfd, 0xe9, 0x08,
  0xf7, 0x0e, 0xfe, 0x00, 0x35, 0xe6, 0xc6, 0xfe, 0xec, 0x0b, 0x05, 0xd7,
  0xd4, 0x03, 0x09, 0x0f, 0x2b, 0xeb, 0x44, 0x0d, 0xf1, 0x04, 0x1e, 0x1e,
  0xd9, 0xef, 0x01, 0xe6, 0x06, 0x02, 0x19, 0x14, 0xf5, 0xfd, 0xee, 0x01,
  0xf9, 0xc9, 0x14, 0xdf, 0x1c, 0xd0, 0x21, 0xb1, 0xf9, 0x06, 0xdb, 0xfb,
  0x05, 0x0d, 0x0d, 0x33, 0xdd, 0xe0, 0xf6, 0x2a, 0x06, 0x19, 0x26, 0xd8,
  0xf0, 0xf8, 0xf1, 0x2f, 0x0c, 0xe2, 0x05, 0xe5, 0x2d, 0x2f, 0x30, 0x38,
  0xe3, 0xfc, 0xdc, 0xef, 0x12, 0xee, 0xe4, 0x2b, 0x09, 0xf9, 0x02, 0xf4,
  0x16, 0x3d, 0xda, 0x10, 0xee, 0xf6, 0x2c, 0xe0, 0xe8, 0xea, 0x20, 0x26,
  0x0e, 0xff, 0x03, 0x1c, 0x3c, 0x01, 0x0f, 0xec, 0x13, 0xa2, 0x00, 0xe3,
  0xf9, 0xdc, 0xf4, 0xf6, 0xea, 0x2d, 0xfd, 0xe9, 0x10, 0x17, 0xbd, 0x10,
  0xe6, 0x9e, 0xf7, 0xd0, 0x50, 0x14, 0xe3, 0x05, 0xe4, 0x1a, 0x0f, 0xe9,
  0x06, 0xfb, 0xf8, 0x29, 0x14, 0x16, 0xf5, 0xbc, 0x07, 0x0e, 0x3d, 0x19,
  0xdf, 0x0d, 0x43, 0xba, 0xe6, 0xef, 0xd2, 0xc7, 0x07, 0xca, 0x06, 0x0b,
  0xf3, 0x11, 0x0a, 0x12, 0x1c, 0xc4, 0x28, 0xce, 0x21, 0x13, 0xd2, 0x35,
  0xee, 0xf6, 0xf4, 0xfd, 0xf1, 0xd7, 0x1e, 0x29, 0x0e, 0xfb, 0x2d, 0xc7,
  0x21, 0xf5, 0xfb, 0x12, 0xec, 0x96, 0x2c, 0xfd, 0x05, 0x0c, 0x0e, 0x0f,
  0xf8, 0xf5, 0x1d, 0xed, 0x46, 0x0b, 0x08, 0x16, 0xdf, 0x16, 0x53, 0x0e,
  0xce, 0x1c, 0xec, 0xf6, 0xef, 0x09, 0xd5, 0xf0, 0xca, 0xe8, 0xe8, 0x16,
  0x12, 0x0c, 0xfe, 0x05, 0xdf, 0xf7, 0xcd, 0xef, 0xf8, 0x0b, 0x28, 0xf2,
  0x1a, 0xe4, 0x12, 0x12, 0xf6, 0xca, 0xe7, 0xd9, 0xdd, 0xc4, 0x1f, 0xdf,
  0xea, 0xb8, 0x30, 0xe4, 0xfa, 0xe4, 0x0c, 0xe8, 0xde, 0xe8, 0x1d, 0xfb,
  0x1b, 0x15, 0x24, 0xee, 0xf5, 0xf3, 0x2a, 0x3e, 0x1e, 0x17, 0x06, 0xe7,
  0xe7, 0xde, 0xf0, 0xc7, 0xd9, 0xf1, 0x15, 0x0d, 0xe7, 0x09, 0x30, 0xff,
  0xe5, 0xfa, 0xf8, 0xec, 0xd7, 0xf9, 0xe4, 0xf1, 0xe9, 0xee, 0x0e, 0xef,
  0xd2, 0xe4, 0xf6, 0x16, 0xf7, 0xe7, 0x13, 0x03, 0xe9, 0x03, 0x53, 0x05,
  0x07, 0x14, 0x19, 0xde, 0xe7, 0x11, 0x0f, 0xde, 0xc2, 0xf1, 0x38, 0x14,
  0x16, 0xd0, 0x24, 0x24, 0x0a, 0xf0, 0x01, 0x20, 0x04, 0x2b, 0x09, 0x0f,
  0xe9, 0xe3, 0xc7, 0x27, 0x1b, 0xff, 0x41, 0xdb, 0x16, 0xf3, 0xd2, 0x16,
  0xea, 0x24, 0x2a, 0x0a, 0x1a, 0x15, 0xf5, 0xff, 0xfe, 0x02, 0x0f, 0x26,
  0xda, 0xfd, 0xf5, 0x24, 0xee, 0xeb, 0x15, 0xd2, 0xcd, 0x3d, 0xe4, 0xfb,
  0x1a, 0x28, 0x07, 0xff, 0xf4, 0xd4, 0xde, 0x06, 0xe5, 0xeb, 0x0a, 0xb1,
  0x0d, 0x07, 0xe3, 0xf0, 0x1d, 0xf5, 0xe2, 0x04, 0xf0, 0xdd, 0xe4, 0x12,
  0xca, 0xd1, 0x0c, 0xe1, 0x2f, 0xf7, 0xf9, 0x30, 0xf5, 0x17, 0x32, 0x2f,
  0x17, 0xdb, 0xfb, 0x1b, 0xdb, 0xec, 0xfa, 0x00, 0x12, 0x18, 0x12, 0xef,
  0x3f, 0x06, 0xf8, 0xdf, 0xfa, 0x16, 0x34, 0x2e, 0x26, 0xf2, 0x32, 0x00,
  0xdd, 0xec, 0xe5, 0x0b, 0x39, 0x14, 0x0e, 0x07, 0xec, 0xee, 0x14, 0x38,
  0x08, 0x0c, 0xfe, 0xfd, 0x17, 0x25, 0x0c, 0x10, 0x0a, 0x14, 0x2e, 0xcd,
  0xec, 0xfb, 0x0a, 0xf6, 0xc9, 0x0c, 0x0f, 0xfe, 0xfd, 0x10, 0xe3, 0x09,
  0xfd, 0xb2, 0xee, 0x22, 0x03, 0xf1, 0xd3, 0xe0, 0xd3, 0x0d, 0x07, 0x7f,
  0xe4, 0xf5, 0x0f, 0xbe, 0xe8, 0x1a, 0x35, 0xe9, 0xf8, 0x17, 0x29, 0x24,
  0x05, 0x1f, 0x11, 0x2c, 0x09, 0x00, 0x07, 0xe0, 0x01, 0x2c, 0xf4, 0xd1,
  0x27, 0xfe, 0x19, 0xf7, 0x2e, 0xcc, 0x00, 0x26, 0x10, 0xc2, 0x2b, 0x2c,
  0xec, 0xe5, 0xfe, 0x0d, 0x0b, 0x0e, 0x0d, 0x2e, 0x46, 0x0f, 0xe9, 0xc6,
  0x10, 0x03, 0x1b, 0xea, 0xe6, 0x08, 0xfc, 0xf8, 0xfa, 0xd1, 0xbf, 0x0f,
  0xe3, 0xa1, 0x02, 0x20, 0xf6, 0x22, 0x29, 0xed, 0x29, 0xfc, 0x02, 0xf2,
  0x1f, 0xff, 0x03, 0x21, 0x2c, 0x37, 0x15, 0xf4, 0x05, 0x1a, 0xf9, 0x05,
  0x1a, 0x29, 0xe1, 0xcf, 0x02, 0xad, 0xee, 0x4d, 0xf2, 0x19, 0x22, 0x03,
  0xec, 0x16, 0x02, 0xfb, 0x02, 0x44, 0x01, 0x46, 0x1f, 0xe9, 0xff, 0x09,
  0xd9, 0x1f, 0x1d, 0x26, 0x1c, 0x2b, 0x15, 0xdd, 0xf9, 0xd3, 0xe3, 0x15,
  0x1f, 0x0e, 0xee, 0xdf, 0xf4, 0xd0, 0xf8, 0xef, 0x1d, 0x04, 0xee, 0xba,
  0x10, 0xf0, 0x5a, 0xed, 0xfb, 0x01, 0xcb, 0x30, 0x2b, 0x4f, 0x17, 0xda,
  0x05, 0x06, 0x12, 0x07, 0x2c, 0xe5, 0x3c, 0xef, 0x20, 0xef, 0xd4, 0x01,
  0xe6, 0x70, 0x06, 0xf7, 0x05, 0x21, 0x1d, 0xb5, 0xe6, 0x48, 0x28, 0xc6,
  0x18, 0xe7, 0xda, 0x22, 0x07, 0x04, 0x08, 0xf2, 0xec, 0xfa, 0xd0, 0xef,
  0x12, 0x07, 0xe1, 0x15, 0xd2, 0xe0, 0xff, 0xdb, 0x1b, 0xd5, 0xd3, 0xef,
  0x2c, 0xef, 0xec, 0xc3, 0x23, 0x23, 0x05, 0xda, 0xdb, 0xef, 0x10, 0x10,
  0xc1, 0xe5, 0x17, 0xe0, 0xf6, 0xe8, 0xfc, 0x0a, 0xdc, 0xd8, 0x1f, 0xdf,
  0x13, 0x04, 0xec, 0x44, 0x18, 0x4c, 0x31, 0xd9, 0x0d, 0xc9, 0x00, 0x0f,
  0xe2, 0xc7, 0xf1, 0x1e, 0xfc, 0x10, 0xe3, 0x0e, 0x29, 0x2b, 0xeb, 0xed,
  0xf5, 0x0e, 0x2b, 0x29, 0xdc, 0xf8, 0xee, 0xdb, 0x22, 0x19, 0xdd, 0xc1,
  0x0e, 0x07, 0x10, 0x01, 0xf6, 0xf6, 0xf5, 0xe2, 0xef, 0x00, 0x21, 0xf6,
  0xe2, 0xf6, 0x12, 0x08, 0x02, 0xd9, 0x27, 0x11, 0x1a, 0x14, 0x26, 0x1a,
  0x22, 0xcc, 0x34, 0x03, 0x03, 0xef, 0xfe, 0x38, 0xde, 0xe2, 0x25, 0x0e,
  0xf4, 0xf3, 0x11, 0x4a, 0xf1, 0xee, 0x2f, 0xd6, 0x22, 0x39, 0xdc, 0x1e,
  0xeb, 0x16, 0x3b, 0xf8, 0x27, 0xf7, 0x03, 0x1d, 0x05, 0x25, 0x1f, 0x05,
  0x18, 0x2a, 0xd5, 0x0c, 0xf5, 0xf8, 0xe6, 0x11, 0x1d, 0xed, 0xdf, 0xff,
  0x12, 0xd2, 0xf9, 0x36, 0x22, 0xf5, 0xcb, 0x0d, 0x21, 0x02, 0x1f, 0x0c,
  0xd9, 0x1b, 0xc7, 0x16, 0xf7, 0xbb, 0x1f, 0xf3, 0xf5, 0xf9, 0xf0, 0x17,
  0xf5, 0x27, 0xe7, 0x23, 0x19, 0x1a, 0x02, 0x02, 0xc7, 0xff, 0x07, 0x15,
  0xde, 0x09, 0x09, 0x07, 0xf1, 0x12, 0x3d, 0x0c, 0x40, 0x1e, 0xec, 0x07,
  0xfa, 0x1d, 0xe9, 0x01, 0x05, 0x38, 0xf1, 0x06, 0xdb, 0xdd, 0x14, 0x2f,
  0x07, 0xff, 0xe8, 0xf4, 0xdc, 0xdb, 0xd1, 0x0f, 0xc9, 0xcc, 0xd4, 0x0a,
  0xe3, 0xc4, 0x9b, 0xfb, 0x71, 0xc7, 0x9c, 0xdf, 0xc7, 0xd0, 0xd0, 0xf2,
  0xd1, 0xe1, 0x09, 0xd3, 0x95, 0x09, 0xfc, 0x4b, 0x21, 0x21, 0x9b, 0xee,
  0xda, 0xd5, 0xee, 0xee, 0xb4, 0xd3, 0xb8, 0x1d, 0xf2, 0x0b, 0xfc, 0x3d,
  0x42, 0x1f, 0x12, 0xe1, 0xdc, 0x0b, 0xe0, 0xfc, 0xff, 0xdd, 0xee, 0x33,
  0x00, 0xe1, 0xa0, 0x38, 0xef, 0x11, 0xfc, 0xff, 0x27, 0xef, 0xf3, 0xf1,
  0x34, 0xca, 0xc7, 0x95, 0xd4, 0xbf, 0x40, 0x6f, 0x66, 0xb7, 0x07, 0xdb,
  0x1d, 0x15, 0xd7, 0xc7, 0x73, 0x08, 0xd6, 0xf0, 0xe5, 0xf9, 0xe2, 0xf3,
  0xbd, 0x3d, 0xf7, 0xc4, 0xbc, 0x10, 0x10, 0xe1, 0x0f, 0xe1, 0xb7, 0x1c,
  0xe2, 0xe2, 0x1a, 0x2f, 0x04, 0xc5, 0xea, 0x1f, 0xfa, 0x2d, 0xed, 0x42,
  0xee, 0x12, 0x36, 0xf9, 0x01, 0x07, 0xd2, 0x18, 0xea, 0xf9, 0x9e, 0xde,
  0xf1, 0x18, 0xb1, 0xf8, 0xd6, 0xd4, 0x16, 0x94, 0x19, 0xd3, 0xbd, 0xe6,
  0xf4, 0xc2, 0x19, 0xdb, 0xd3, 0x56, 0x2b, 0xf6, 0xec, 0xdd, 0x2d, 0xc6,
  0xc2, 0xe0, 0x9b, 0xa4, 0x25, 0x2a, 0x12, 0x9c, 0xbe, 0xb8, 0xe4, 0x17,
  0x2c, 0x24, 0xf7, 0xff, 0xbb, 0x00, 0x12, 0xb9, 0xf3, 0xf6, 0xe6, 0xe5,
  0x02, 0xc6, 0xc6, 0xc5, 0xf8, 0x08, 0xd5, 0x14, 0x14, 0x30, 0xac, 0x3c,
  0xed, 0x4a, 0x00, 0x47, 0xa9, 0x25, 0x29, 0xe5, 0xee, 0xa2, 0xc7, 0x9e,
  0xf6, 0xea, 0xf7, 0x56, 0x06, 0x06, 0x02, 0x97, 0xd9, 0xc3, 0x58, 0x09,
  0x07, 0x05, 0xa1, 0xb9, 0xd8, 0xe0, 0xb6, 0xe6, 0xf2, 0xf4, 0x2c, 0xdc,
  0xde, 0xa0, 0xa5, 0x57, 0xc7, 0xf5, 0xe8, 0xdf, 0xe3, 0xef, 0xdb, 0xf8,
  0xe3, 0xd0, 0x32, 0xff, 0xb2, 0x1e, 0xdd, 0xea, 0x0e, 0x27, 0xf0, 0xe6,
  0x25, 0x1c, 0xc9, 0xe6, 0xbc, 0xf4, 0xdd, 0x00, 0xf0, 0x05, 0xcb, 0xff,
  0x21, 0xdb, 0xb1, 0xc0, 0xb4, 0x01, 0x03, 0xfb, 0x0f, 0xfe, 0x33, 0xe5,
  0x19, 0x14, 0xd7, 0xd4, 0x24, 0x32, 0x3e, 0xc0, 0xbd, 0xb1, 0xbb, 0x10,
  0x14, 0xed, 0xff, 0xf1, 0xcd, 0xf8, 0xf3, 0x47, 0x1b, 0xbf, 0x0a, 0xf9,
  0xb8, 0x09, 0xad, 0xd9, 0x34, 0xff, 0xf7, 0x1b, 0x94, 0xff, 0xc5, 0xbb,
  0x72, 0x05, 0x42, 0xa4, 0xd3, 0x35, 0xc3, 0x26, 0x2a, 0x36, 0xe1, 0xc8,
  0x52, 0xc2, 0x14, 0x9b, 0xfa, 0x44, 0xf9, 0xda, 0xd1, 0xf4, 0x06, 0x2b,
  0x41, 0xd9, 0x1b, 0xfe, 0x0a, 0xe1, 0xb2, 0xa7, 0x35, 0xec, 0xe6, 0xf5,
  0x0b, 0x0e, 0x81, 0xd9, 0xf6, 0x4a, 0x2a, 0x9d, 0x04, 0xf1, 0x0b, 0x0d,
  0xca, 0x01, 0x6c, 0xf8, 0xe1, 0x8d, 0x1d, 0x0f, 0xd2, 0x36, 0x55, 0xb8,
  0xc0, 0x13, 0x03, 0x7e, 0xfa, 0x37, 0x07, 0xd7, 0xc2, 0xfe, 0xc9, 0xcd,
  0xf2, 0x4d, 0x0a, 0xf6, 0x90, 0xe5, 0x00, 0xda, 0xc0, 0xb9, 0x12, 0xef,
  0xc6, 0x37, 0xd3, 0x01, 0x37, 0xdf, 0xd5, 0xa8, 0xd9, 0xff, 0xca, 0x01,
  0xad, 0x08, 0xc2, 0xaa, 0xe0, 0xf3, 0x25, 0xef, 0xcf, 0x1d, 0xfe, 0x24,
  0xf2, 0x6f, 0xba, 0xa8, 0x3b, 0x24, 0xef, 0x59, 0xf3, 0x99, 0x9c, 0xd8,
  0x2c, 0xce, 0x6e, 0xf5, 0x09, 0x18, 0x8d, 0xcf, 0xd0, 0xfa, 0xf6, 0x00,
  0xdc, 0x36, 0xff, 0x73, 0x11, 0x16, 0xdc, 0x12, 0x1a, 0xec, 0x29, 0x27,
  0xd4, 0xe9, 0x1a, 0x04, 0xdc, 0x0b, 0x9b, 0xf9, 0x17, 0xf0, 0xe0, 0xca,
  0xc9, 0x52, 0x63, 0xc5, 0xd9, 0xd9, 0x9e, 0xe7, 0xe7, 0x5b, 0xa1, 0x91,
  0x01, 0xf3, 0xeb, 0xc0, 0x2e, 0x56, 0x04, 0x30, 0xaa, 0xc6, 0x0b, 0x04,
  0xfb, 0x5b, 0xd6, 0xf9, 0x12, 0xeb, 0xf7, 0xc2, 0xeb, 0x18, 0xf8, 0xdc,
  0xe7, 0xfd, 0x22, 0xd5, 0xf1, 0x7c, 0xee, 0x18, 0xf0, 0xde, 0x3a, 0xf0,
  0x2f, 0x00, 0x2f, 0xb0, 0x5a, 0x18, 0xe9, 0xf4, 0x0b, 0x0d, 0xc8, 0xa7,
  0x29, 0x18, 0xfb, 0xde, 0xfe, 0xdb, 0xb8, 0x4c, 0xed, 0x18, 0xf4, 0xbe,
  0xac, 0x46, 0xee, 0xd2, 0xe5, 0xe6, 0xfe, 0xf5, 0xc9, 0xb8, 0xe1, 0xcd,
  0x05, 0x09, 0xd2, 0xe5, 0x00, 0x25, 0xfc, 0xd2, 0x10, 0x09, 0xb0, 0xdd,
  0xd5, 0xf4, 0xef, 0x15, 0x10, 0xd1, 0xbe, 0xf5, 0xdb, 0xf0, 0x09, 0x52,
  0x23, 0x3b, 0x38, 0xc9, 0xe0, 0xec, 0x05, 0x27, 0x2a, 0x46, 0xc7, 0x0b,
  0x37, 0x1b, 0xf0, 0xfe, 0xed, 0x13, 0x26, 0xeb, 0xa7, 0x1d, 0xf1, 0x25,
  0xfa, 0xde, 0x5d, 0x0f, 0x26, 0xe2, 0x99, 0xd2, 0x59, 0x08, 0x10, 0xff,
  0xe4, 0x38, 0x3c, 0xd2, 0xe9, 0x1c, 0x45, 0x1d, 0xf9, 0x44, 0x0f, 0x4d,
  0x47, 0x19, 0x1e, 0xba, 0xf1, 0xd9, 0x29, 0xdb, 0xe0, 0x2d, 0x31, 0x21,
  0xe7, 0x09, 0xe3, 0x24, 0x50, 0x6d, 0xd8, 0xcf, 0xf1, 0xf4, 0xe9, 0x02,
  0xbf, 0x1a, 0xf7, 0xc9, 0xfd, 0xdb, 0x18, 0x10, 0x11, 0xf5, 0xf8, 0xae,
  0x22, 0x06, 0xc4, 0xa8, 0x04, 0x02, 0xe6, 0xcf, 0xd5, 0xe3, 0xa0, 0xec,
  0x3e, 0xe1, 0x23, 0x81, 0x1e, 0xc6, 0xc6, 0xd7, 0xf6, 0x3d, 0x15, 0xbf,
  0x11, 0xfd, 0xc6, 0x22, 0x19, 0x2c, 0x1a, 0xab, 0xca, 0x59, 0x95, 0xa1,
  0x2e, 0x4d, 0xc2, 0xc6, 0xf4, 0x1f, 0xc8, 0xc0, 0xe6, 0xe2, 0x05, 0xb8,
  0x13, 0x2f, 0x03, 0xf0, 0xfa, 0xfc, 0x04, 0xf2, 0x46, 0x51, 0xf9, 0xbd,
  0x38, 0x17, 0x09, 0xcd, 0xd6, 0xde, 0x16, 0xeb, 0x1b, 0xfa, 0x20, 0xbf,
  0xb8, 0x1e, 0x27, 0xf1, 0x41, 0x33, 0x2a, 0xc7, 0xeb, 0x05, 0xf3, 0x03,
  0x2c, 0xeb, 0xda, 0xdd, 0x06, 0xb9, 0xdc, 0x0f, 0x02, 0x28, 0xf6, 0xb8,
  0xea, 0xe7, 0x2b, 0xae, 0xdf, 0x2a, 0xfc, 0xa3, 0x3b, 0xf1, 0x1a, 0xe5,
  0xea, 0xeb, 0xb7, 0xae, 0x3b, 0x0d, 0xe2, 0x1c, 0x05, 0x04, 0xe7, 0x14,
  0xff, 0x62, 0x0b, 0x0b, 0xf7, 0x0a, 0x1b, 0xff, 0x26, 0x1d, 0xd0, 0x23,
  0x28, 0x14, 0xdb, 0xce, 0x37, 0x34, 0x2e, 0x24, 0x08, 0x13, 0xdd, 0xcb,
  0xf4, 0x26, 0x12, 0xe2, 0x10, 0xf6, 0xf0, 0xe4, 0xc1, 0x05, 0xd3, 0xcf,
  0x5b, 0xfb, 0xf0, 0xfe, 0x2e, 0x60, 0x22, 0xf5, 0xe0, 0xea, 0xe8, 0x1a,
  0x21, 0x6b, 0x06, 0xdb, 0xf4, 0xd9, 0xdb, 0xee, 0xe7, 0x07, 0xe2, 0xeb,
  0xf9, 0x25, 0xf9, 0x43, 0xff, 0x6e, 0xde, 0xbb, 0x07, 0x11, 0xff, 0x9b,
  0xdd, 0x2e, 0xfc, 0x02, 0x02, 0xbd, 0x1a, 0x97, 0x42, 0x17, 0xeb, 0xe3,
  0xe7, 0xed, 0x11, 0x07, 0x3c, 0x58, 0x16, 0x0c, 0x30, 0x13, 0xe2, 0xf6,
  0xff, 0x38, 0x0a, 0xf5, 0xe7, 0x2e, 0x13, 0x10, 0xeb, 0x24, 0x2b, 0x2d,
  0x50, 0xe2, 0x09, 0x09, 0x01, 0x4e, 0x31, 0xb0, 0xfa, 0x2f, 0xec, 0x15,
  0x12, 0x50, 0xf0, 0xfd, 0x25, 0xfc, 0x03, 0xf6, 0xa7, 0x4f, 0xdc, 0xf5,
  0x15, 0x04, 0xf2, 0xed, 0xfb, 0x17, 0x07, 0x1f, 0xe7, 0xd8, 0x06, 0xb2,
  0xc2, 0xf7, 0x46, 0x21, 0x2b, 0x21, 0x19, 0xad, 0x20, 0x24, 0xf5, 0xbe,
  0x1b, 0x1f, 0x46, 0x10, 0xed, 0x04, 0xda, 0xe3, 0xe6, 0x3f, 0xba, 0x04,
  0xdf, 0x18, 0x13, 0x17, 0x19, 0xbb, 0xd0, 0x3d, 0xef, 0x02, 0x0c, 0x03,
  0xd0, 0xf0, 0xd3, 0x46, 0xfd, 0x3a, 0x06, 0x65, 0xc7, 0x1f, 0x4c, 0x45,
  0xe3, 0x5e, 0x39, 0x23, 0x03, 0xeb, 0x30, 0xe1, 0xca, 0x4e, 0x0e, 0xde,
  0xf5, 0x07, 0x0c, 0x44, 0xe7, 0x54, 0x44, 0x22, 0xff, 0x10, 0x10, 0xd6,
  0xdc, 0x00, 0x1a, 0xa6, 0x2d, 0x21, 0xfb, 0x40, 0x37, 0x0e, 0x11, 0xfe,
  0xeb, 0x44, 0xfa, 0x01, 0x06, 0x76, 0xdb, 0x0b, 0xf4, 0x31, 0xe1, 0x48,
  0xeb, 0x07, 0xf5, 0x2a, 0x0b, 0x0f, 0xeb, 0x44, 0xfc, 0x28, 0x32, 0x04,
  0x09, 0xe7, 0x57, 0x2b, 0x01, 0x51, 0xe4, 0xda, 0x13, 0xe0, 0x16, 0x18,
  0xe7, 0x24, 0x38, 0xc6, 0x2d, 0x30, 0x07, 0xe7, 0xea, 0x1b, 0xee, 0x02,
  0x48, 0xfa, 0xd6, 0x39, 0x01, 0x1d, 0x0e, 0xb7, 0xdb, 0x04, 0x2f, 0xd8,
  0x27, 0x33, 0xd1, 0x3d, 0x25, 0x07, 0x06, 0xd4, 0xf9, 0xe2, 0x0f, 0x00,
  0x3a, 0x04, 0xd2, 0x36, 0x1c, 0xee, 0xd7, 0xcd, 0xaf, 0x1f, 0x1d, 0x23,
  0x19, 0x42, 0xf2, 0x26, 0x0c, 0x21, 0xbf, 0x0e, 0xe8, 0xf0, 0x4f, 0xd6,
  0xc5, 0xd1, 0xfc, 0x1d, 0x0c, 0x0f, 0xd2, 0x2c, 0xf5, 0x2e, 0x1b, 0x03,
  0x1f, 0x27, 0x32, 0x2c, 0xe8, 0x2f, 0xf6, 0xd2, 0xe0, 0x4a, 0x15, 0xdf,
  0xd6, 0xe6, 0x00, 0x06, 0xda, 0xf4, 0xf0, 0x2f, 0x0c, 0xee, 0xc5, 0x1f,
  0x25, 0x05, 0x17, 0x21, 0x29, 0x2c, 0xed, 0x15, 0x0e, 0x2e, 0x14, 0xe7,
  0xfe, 0xf1, 0xff, 0xd7, 0x0a, 0x3a, 0x12, 0x0e, 0x30, 0xd9, 0x0b, 0x0b,
  0xdb, 0xc5, 0x3d, 0xf1, 0xc1, 0x1e, 0x25, 0x12, 0xeb, 0xc9, 0xd9, 0x5e,
  0xf3, 0xcc, 0x33, 0xe9, 0x4e, 0x21, 0x29, 0x01, 0xf7, 0x3f, 0x2b, 0x09,
  0x34, 0x0e, 0x2c, 0x22, 0x20, 0x0b, 0xe3, 0x1d, 0xed, 0x14, 0xd7, 0xf0,
  0xd7, 0x01, 0xf8, 0x72, 0x30, 0xd4, 0x5c, 0xd9, 0x45, 0xe1, 0xdd, 0x32,
  0xd8, 0x16, 0x2d, 0xf5, 0xf9, 0x0c, 0xf9, 0x4a, 0xdc, 0xed, 0xfc, 0xe1,
  0xe0, 0x32, 0xf0, 0x43, 0xd0, 0xe3, 0x12, 0xf3, 0x12, 0xc4, 0xcb, 0x1d,
  0xc2, 0xb9, 0xfe, 0x0a, 0x01, 0x0c, 0xdf, 0x36, 0x05, 0xef, 0x26, 0x0c,
  0x14, 0x07, 0x15, 0x03, 0xfc, 0xf6, 0xd1, 0xb4, 0x1b, 0x14, 0x05, 0x43,
  0x2e, 0x01, 0x23, 0xfe, 0x0b, 0x35, 0x34, 0x03, 0xe2, 0x10, 0xe8, 0xfe,
  0x16, 0xe0, 0xe8, 0x44, 0xd6, 0xb8, 0x3d, 0xb1, 0x08, 0xdd, 0x16, 0x17,
  0xca, 0x05, 0xf2, 0x2f, 0xe3, 0x1d, 0x27, 0x25, 0xd5, 0x32, 0x14, 0x20,
  0xa6, 0xeb, 0x14, 0xd2, 0x28, 0xea, 0xde, 0xa0, 0x03, 0xe3, 0xd1, 0xb5,
  0xfe, 0xe1, 0x05, 0x2c, 0xe9, 0xf4, 0xc5, 0xe6, 0xf4, 0xfb, 0x9e, 0xda,
  0x03, 0xe0, 0x08, 0xeb, 0xc4, 0x2b, 0xed, 0xdb, 0x20, 0xe8, 0xeb, 0x81,
  0xe8, 0x04, 0xe2, 0xf0, 0xe2, 0xe8, 0xdc, 0xee, 0x2b, 0x21, 0xea, 0xfd,
  0x19, 0x15, 0x37, 0x05, 0x35, 0x16, 0x50, 0xff, 0xbc, 0x21, 0x96, 0x28,
  0xe8, 0xab, 0xf5, 0x19, 0x4d, 0xf0, 0xc2, 0x05, 0x19, 0xef, 0x20, 0xda,
  0xe8, 0xe2, 0x4b, 0xc6, 0xe7, 0xdd, 0x03, 0x03, 0x2c, 0x03, 0x09, 0xd1,
  0x20, 0xf6, 0x35, 0x1b, 0xde, 0xf4, 0x1d, 0x0a, 0x4d, 0x03, 0x3a, 0x18,
  0xad, 0xed, 0xf7, 0xec, 0xfb, 0xe0, 0xe1, 0xe1, 0xd1, 0x19, 0xe5, 0xca,
  0x06, 0x1b, 0x3f, 0xed, 0x1f, 0xd5, 0x12, 0xf1, 0xb8, 0x25, 0x36, 0xe6,
  0x37, 0x07, 0xd7, 0xec, 0xca, 0xfd, 0xe9, 0xd7, 0xd2, 0x60, 0xc6, 0xe9,
  0x49, 0x22, 0x00, 0x1d, 0x48, 0x01, 0xe8, 0xf3, 0x08, 0x28, 0xec, 0xd5,
  0xf7, 0xbd, 0xf0, 0xf0, 0x03, 0x6d, 0x00, 0x1c, 0x2d, 0xe0, 0x0b, 0x05,
  0xe4, 0x01, 0xfe, 0xcf, 0xe7, 0x1f, 0xea, 0xea, 0x0c, 0x51, 0x33, 0xf7,
  0x1c, 0x28, 0xe6, 0x41, 0xe7, 0x08, 0xdb, 0xbc, 0xcd, 0x11, 0xe0, 0xf9,
  0x0c, 0x92, 0x3c, 0x2d, 0x09, 0x12, 0x00, 0x1e, 0xf0, 0xe3, 0x0d, 0xd4,
  0xe4, 0xd9, 0xd2, 0xb1, 0x4f, 0x22, 0x09, 0x42, 0x3b, 0xba, 0x00, 0xd3,
  0x07, 0x45, 0xed, 0xc7, 0x39, 0xf0, 0xfe, 0xd4, 0xee, 0x13, 0x45, 0x0a,
  0xee, 0x1f, 0x32, 0x1e, 0x13, 0x1c, 0xfc, 0x1a, 0xdb, 0x0f, 0x1d, 0x03,
  0x37, 0x20, 0xf4, 0x07, 0xce, 0x03, 0xf8, 0x1f, 0xd6, 0x6f, 0x10, 0xd7,
  0xce, 0x1d, 0x4f, 0x12, 0x20, 0xf9, 0x16, 0x5a, 0x16, 0x01, 0x0f, 0xea,
  0x25, 0x44, 0x04, 0xef, 0x20, 0xce, 0x1c, 0x12, 0x07, 0x0d, 0x04, 0x0e,
  0x08, 0x0c, 0x0c, 0x20, 0xf7, 0x41, 0x01, 0x2c, 0xec, 0x4b, 0xd5, 0xcc,
  0xec, 0x31, 0xf4, 0x1c, 0xed, 0xfc, 0x10, 0x32, 0xfe, 0x0d, 0xfe, 0xeb,
  0x19, 0x16, 0x3f, 0xea, 0xd8, 0x13, 0xe4, 0xfc, 0x0d, 0x23, 0xe2, 0xf0,
  0xd0, 0x19, 0xda, 0x37, 0xb2, 0xf0, 0xeb, 0xec, 0xc2, 0x02, 0x2b, 0x10,
  0xd9, 0xed, 0xf8, 0xe0, 0x30, 0x08, 0xd2, 0x52, 0xe6, 0xf3, 0x02, 0x10,
  0xf8, 0xe5, 0x16, 0x04, 0x15, 0x09, 0xf0, 0xe7, 0x5c, 0xe5, 0x1d, 0x06,
  0x0b, 0x08, 0xa6, 0xe7, 0x11, 0xfb, 0x4e, 0x57, 0xd9, 0x3b, 0xef, 0x16,
  0x05, 0xff, 0x2a, 0xc5, 0x20, 0x0f, 0xf1, 0x0f, 0x07, 0x0a, 0x1b, 0xff,
  0x0d, 0x4f, 0x5b, 0x07, 0x1a, 0x65, 0x08, 0x12, 0xb7, 0x17, 0x13, 0x48,
  0xe1, 0x0b, 0xd0, 0xf3, 0x28, 0xf5, 0xcd, 0x05, 0x02, 0x71, 0xcb, 0x8c,
  0xe1, 0x10, 0xf5, 0xce, 0xbb, 0xf5, 0xce, 0x07, 0x15, 0x25, 0xc2, 0x27,
  0x13, 0xca, 0x1b, 0xcc, 0x3f, 0xd5, 0xe5, 0x2c, 0x42, 0xdd, 0xe8, 0xb8,
  0x54, 0xb3, 0x1d, 0x1e, 0x0d, 0x2a, 0xdd, 0xd6, 0xda, 0xac, 0x23, 0xfe,
  0x0d, 0xb0, 0xf9, 0xdb, 0xff, 0x94, 0x32, 0xe6, 0x36, 0x71, 0xe2, 0x0e,
  0x4c, 0xba, 0x08, 0xe5, 0xa5, 0xc7, 0x51, 0xed, 0xe4, 0x06, 0x14, 0x11,
  0x36, 0x77, 0x10, 0xf2, 0x0b, 0x0a, 0x10, 0xeb, 0x37, 0x3e, 0x4b, 0xe9,
  0xde, 0xda, 0x22, 0x17, 0xdc, 0x08, 0x79, 0xf2, 0xf8, 0x19, 0x4f, 0x5d,
  0xf8, 0xbc, 0x10, 0xd2, 0x06, 0x29, 0x3e, 0xf9, 0x3e, 0x32, 0x24, 0xee,
  0x9e, 0xf0, 0x39, 0x4a, 0xfa, 0xbb, 0xfa, 0xe9, 0xec, 0x1d, 0x08, 0x0e,
  0xfd, 0x44, 0x3e, 0xbd, 0x0e, 0x2e, 0x2e, 0x52, 0x16, 0xf7, 0x3a, 0xf8,
  0xc7, 0x27, 0x63, 0x12, 0xf3, 0x21, 0x4e, 0xb2, 0xfe, 0x0d, 0x36, 0x31,
  0x01, 0xf9, 0xee, 0x96, 0xda, 0x17, 0x20, 0x56, 0x04, 0xe6, 0x0c, 0x09,
  0xf0, 0x14, 0xd2, 0x27, 0xf3, 0xd8, 0x07, 0xab, 0xfd, 0x25, 0x18, 0x28,
  0x9e, 0xca, 0xf4, 0x02, 0xf6, 0xdb, 0xde, 0xee, 0xf9, 0xbb, 0x08, 0xe2,
  0x1b, 0x14, 0xce, 0x5e, 0x10, 0x05, 0x2a, 0xe5, 0xc7, 0x19, 0xdc, 0x2b,
  0x34, 0xd5, 0x15, 0xd8, 0x3b, 0xba, 0x18, 0x4c, 0xd1, 0xc8, 0xff, 0xe9,
  0xfe, 0x06, 0x0c, 0x31, 0x17, 0xfe, 0x40, 0x1f, 0xfe, 0x3e, 0x4c, 0x25,
  0xdd, 0xef, 0x04, 0x1e, 0x43, 0x43, 0xc9, 0x51, 0x2b, 0xe0, 0x1e, 0xbe,
  0x0f, 0xe0, 0x3a, 0x1b, 0x13, 0xf5, 0xe5, 0x12, 0xb0, 0xcd, 0x33, 0x46,
  0x29, 0x00, 0x0b, 0x08, 0x2b, 0xfc, 0x21, 0x48, 0x36, 0xc2, 0xed, 0xe4,
  0xc4, 0x17, 0x0c, 0x42, 0x0c, 0xb8, 0xe9, 0x01, 0xf0, 0x50, 0x0f, 0xf6,
  0x30, 0xc9, 0xa9, 0x07, 0xfa, 0x1a, 0xcc, 0x06, 0xdf, 0xa0, 0x2a, 0xf5,
  0xf5, 0x0e, 0x2c, 0xb5, 0x03, 0x27, 0x05, 0xba, 0xd7, 0xeb, 0xd8, 0xd1,
  0xe5, 0xee, 0xba, 0xe7, 0x0d, 0x29, 0xec, 0x26, 0x0d, 0xca, 0xfe, 0x0b,
  0xf7, 0x10, 0xd6, 0x22, 0x5d, 0xe8, 0x1c, 0xd0, 0x22, 0xac, 0x3b, 0x98,
  0xca, 0x22, 0xff, 0xca, 0xe7, 0xe8, 0xe0, 0x05, 0x1e, 0xd9, 0x10, 0x2e,
  0x07, 0xc0, 0xea, 0x06, 0xe4, 0xe7, 0xb5, 0xda, 0x01, 0xb3, 0xcc, 0xef,
  0xab, 0xd8, 0xd4, 0x46, 0xb4, 0xfc, 0x9a, 0xeb, 0xe7, 0x2d, 0xb8, 0x40,
  0xe7, 0x2d, 0xdc, 0xf6, 0xed, 0xd5, 0x03, 0xdd, 0x15, 0xce, 0xf0, 0xbf,
  0x28, 0xf2, 0xda, 0x4c, 0x41, 0xf4, 0x20, 0xde, 0x34, 0xde, 0xd7, 0xf9,
  0x40, 0x0c, 0x28, 0xec, 0x0c, 0x01, 0xfe, 0xef, 0x43, 0x0a, 0x38, 0xe1,
  0xe1, 0x18, 0xf2, 0xf0, 0x07, 0x4d, 0x15, 0xf4, 0xd6, 0xc1, 0xc4, 0xf3,
  0x2c, 0x1f, 0xd0, 0x16, 0x1a, 0x1d, 0xc3, 0x27, 0xc6, 0xf2, 0x0d, 0xd1,
  0x1a, 0x20, 0x29, 0xc2, 0xb3, 0xea, 0xfb, 0xa5, 0xb4, 0x2b, 0x34, 0x20,
  0xdd, 0x29, 0xa3, 0xed, 0x16, 0xeb, 0xfc, 0xc6, 0x1f, 0xfc, 0x2b, 0xcd,
  0x07, 0x43, 0xdd, 0xfb, 0x33, 0xb6, 0xdf, 0x21, 0x25, 0x17, 0x0c, 0xb3,
  0xb2, 0xf1, 0xd9, 0x15, 0xde, 0x32, 0xfe, 0x27, 0xd0, 0xcf, 0x28, 0x01,
  0x1e, 0xe5, 0x47, 0xd3, 0x0a, 0xf1, 0x05, 0xf8, 0xea, 0xfe, 0x20, 0xcb,
  0xfc, 0x46, 0x14, 0xd5, 0x30, 0xef, 0xe5, 0xd8, 0xfd, 0x09, 0xdc, 0x10,
  0x33, 0x23, 0x02, 0xce, 0xd8, 0xd2, 0x0a, 0xbd, 0xe5, 0x1d, 0xf8, 0xd8,
  0xfc, 0x0f, 0xd0, 0xfd, 0xf9, 0xef, 0xf0, 0x3b, 0xac, 0xe8, 0x06, 0xa1,
  0xfa, 0x0f, 0x0e, 0xc8, 0xeb, 0xa7, 0x22, 0x2a, 0xf7, 0x54, 0x30, 0xb9,
  0x02, 0xfc, 0xd4, 0x13, 0x04, 0x01, 0x4a, 0xee, 0x2b, 0x43, 0x5d, 0xf3,
  0xbb, 0x15, 0xfd, 0x09, 0x32, 0xf3, 0xfb, 0x0f, 0xdd, 0x0d, 0xf4, 0xee,
  0x2c, 0xf3, 0x53, 0xc8, 0xf5, 0xd6, 0xdc, 0x17, 0x2c, 0x25, 0x16, 0x20,
  0x1d, 0x21, 0x24, 0x0a, 0x1a, 0xe8, 0xc3, 0xc1, 0xf9, 0xe2, 0x04, 0x49,
  0x3c, 0x2b, 0xf0, 0x03, 0xda, 0x06, 0xd2, 0x05, 0x25, 0xc0, 0x4c, 0xeb,
  0xf2, 0x7f, 0x2d, 0xde, 0x37, 0x57, 0x06, 0x00, 0x43, 0x43, 0x28, 0xea,
  0x2b, 0x01, 0xe1, 0xc7, 0x29, 0xda, 0xd1, 0xe3, 0x4c, 0xf6, 0x28, 0x0f,
  0xe2, 0x30, 0x35, 0xf0, 0xdc, 0x4a, 0x32, 0x33, 0x07, 0xdd, 0x22, 0x28,
  0xdd, 0x43, 0x2e, 0xff, 0xef, 0x08, 0xef, 0x08, 0x31, 0x09, 0x3f, 0xcf,
  0x19, 0x0d, 0x05, 0xb6, 0x3d, 0x40, 0x19, 0xc4, 0xce, 0xd5, 0x0c, 0x98,
  0x29, 0x12, 0x1d, 0xa6, 0xfe, 0x20, 0x0e, 0x07, 0xd2, 0xf8, 0x37, 0x1f,
  0x12, 0xb6, 0x55, 0xdd, 0x39, 0x29, 0x37, 0x41, 0xea, 0x1b, 0x0e, 0x18,
  0x13, 0x25, 0x16, 0x45, 0x56, 0x2d, 0x0d, 0x49, 0xdd, 0x24, 0x0a, 0x22,
  0x24, 0x27, 0xe1, 0x98, 0x03, 0xe0, 0xb0, 0x33, 0xd2, 0x7d, 0xef, 0x0e,
  0xf0, 0x4b, 0xd7, 0xc7, 0x2b, 0xd2, 0xc7, 0xfd, 0xb0, 0xd6, 0xd3, 0x18,
  0x44, 0x00, 0x27, 0x50, 0xe1, 0x3e, 0x2e, 0x1c, 0x30, 0xb9, 0x34, 0xa8,
  0xcc, 0xe8, 0xe8, 0x22, 0xf4, 0x06, 0x71, 0x04, 0x36, 0x05, 0x09, 0x42,
  0x0e, 0x04, 0x11, 0x15, 0x02, 0xca, 0x36, 0x33, 0xf7, 0xff, 0x06, 0x47,
  0xc7, 0x44, 0xec, 0x9f, 0x24, 0xec, 0xc0, 0x15, 0xeb, 0x18, 0xf8, 0xde,
  0x1f, 0x18, 0x3e, 0xe2, 0x3f, 0xea, 0x63, 0xc2, 0xe7, 0xcc, 0xf2, 0x59,
  0xcf, 0x01, 0x14, 0xe4, 0x38, 0xe2, 0xca, 0x1f, 0x1e, 0x2b, 0x49, 0xc5,
  0x1d, 0xfa, 0x31, 0x28, 0xe7, 0x29, 0xd9, 0x0e, 0x46, 0x89, 0xdc, 0xba,
  0x11, 0xf0, 0xaa, 0x0f, 0x3d, 0x09, 0xa6, 0x1d, 0x18, 0x39, 0xb7, 0x35,
  0x59, 0x0d, 0xf4, 0xf7, 0xe6, 0x04, 0xe7, 0xff, 0xce, 0xec, 0xfe, 0x53,
  0x14, 0x34, 0xe7, 0x21, 0x4d, 0x3e, 0x02, 0x3b, 0xe5, 0x22, 0x4c, 0xf6,
  0xcf, 0xf1, 0xe7, 0x18, 0xd3, 0xc1, 0x15, 0xeb, 0x05, 0xe7, 0x1c, 0xce,
  0x2f, 0xa2, 0x15, 0xe2, 0x20, 0xeb, 0xfd, 0x21, 0x06, 0xbc, 0x02, 0x2e,
  0xfd, 0x02, 0xf4, 0x11, 0xf5, 0x33, 0xe5, 0x04, 0x0e, 0xfd, 0xd9, 0x19,
  0x13, 0x08, 0x12, 0xf1, 0x0f, 0xb8, 0x12, 0xb4, 0x06, 0x06, 0xd4, 0xf2,
  0x12, 0xd6, 0xd8, 0x2e, 0xfe, 0x36, 0xf0, 0x09, 0xdc, 0x4c, 0xbd, 0xea,
  0xf0, 0x29, 0xf5, 0xec, 0xfe, 0xb2, 0x30, 0xe6, 0x20, 0x05, 0xa5, 0x2b,
  0xf2, 0x26, 0x09, 0x1e, 0x33, 0xef, 0xe8, 0x1f, 0xf4, 0xf6, 0x09, 0x45,
  0x10, 0x13, 0xe0, 0x11, 0xf9, 0xe9, 0x24, 0x49, 0xf9, 0xe4, 0xd6, 0x0a,
  0x3f, 0x32, 0xfb, 0x16, 0x14, 0xfe, 0x0b, 0xf7, 0xcd, 0x28, 0x23, 0xde,
  0xeb, 0xbc, 0x0a, 0x10, 0xf9, 0x16, 0xb5, 0xdb, 0x41, 0x17, 0x53, 0x04,
  0x00, 0x0a, 0x0f, 0x17, 0x2e, 0xfa, 0x2f, 0x09, 0xfc, 0xf7, 0xbc, 0xc5,
  0xf6, 0xed, 0x09, 0x1f, 0x37, 0x42, 0xe3, 0xf2, 0xf8, 0x0e, 0x1d, 0x10,
  0xf3, 0x41, 0xb1, 0x40, 0x30, 0xf2, 0x11, 0xf3, 0x31, 0x07, 0x27, 0xbe,
  0x45, 0xf5, 0x15, 0xec, 0xe7, 0xc3, 0x07, 0x0c, 0x29, 0xcc, 0x2c, 0x11,
  0x39, 0xbe, 0xf9, 0xba, 0xed, 0xe9, 0x12, 0x0c, 0x22, 0x0d, 0xc3, 0xd5,
  0x21, 0x10, 0x2e, 0xc3, 0xfb, 0xd4, 0xb4, 0xf4, 0xd4, 0x13, 0x16, 0xf2,
  0x1d, 0xc5, 0xf5, 0xe9, 0xbb, 0x10, 0xf9, 0xc4, 0x0c, 0xcc, 0xd7, 0xcb,
  0xc1, 0xc8, 0xfe, 0xea, 0xf3, 0xec, 0x08, 0xdf, 0xcb, 0x05, 0x49, 0xdd,
  0x20, 0xff, 0x41, 0xff, 0xf9, 0x18, 0xec, 0x32, 0x09, 0x1a, 0xff, 0x05,
  0x0d, 0x29, 0xed, 0x9c, 0x45, 0xd1, 0xc5, 0xaf, 0xf1, 0x14, 0xc3, 0x01,
  0xfd, 0x05, 0xc8, 0xe6, 0x02, 0xee, 0xfe, 0x0a, 0x16, 0xff, 0xd8, 0xb3,
  0x0e, 0x1e, 0x24, 0x1a, 0x24, 0xed, 0x0f, 0x35, 0x38, 0x37, 0xee, 0x17,
  0x13, 0xef, 0xf5, 0xc4, 0x12, 0xe3, 0xf3, 0x01, 0x03, 0xf8, 0x12, 0x20,
  0x0c, 0xf1, 0xf8, 0xde, 0xd9, 0xce, 0x36, 0xd2, 0x3e, 0x0e, 0x07, 0xe9,
  0x24, 0x09, 0xe5, 0x2c, 0x13, 0xea, 0x10, 0xfb, 0xee, 0xd7, 0x09, 0xf0,
  0x2d, 0x33, 0xfc, 0xfb, 0xfe, 0x1c, 0xff, 0xeb, 0x14, 0x11, 0x0b, 0x1c,
  0x43, 0xdb, 0xf9, 0x07, 0x28, 0x0a, 0xf0, 0xd0, 0x09, 0xd8, 0xc6, 0xf2,
  0x08, 0xf5, 0xc3, 0xfa, 0x01, 0xec, 0x0a, 0xe0, 0x2c, 0xfd, 0xf9, 0xc0,
  0x23, 0xf6, 0x06, 0xf3, 0xf5, 0x27, 0x29, 0x16, 0xd4, 0xe8, 0xf4, 0x06,
  0xf5, 0x0b, 0xe6, 0xd5, 0xf2, 0xf6, 0x0d, 0x1d, 0xdf, 0x18, 0x14, 0xbd,
  0x17, 0xd2, 0x07, 0xee, 0x20, 0x02, 0x0f, 0xdd, 0xd6, 0xde, 0xf3, 0xb8,
  0x32, 0x07, 0x16, 0xd3, 0xfb, 0x25, 0x26, 0x0d, 0x1f, 0x1d, 0xd7, 0x0e,
  0x20, 0x93, 0x04, 0xdd, 0x26, 0x46, 0xd3, 0x16, 0x37, 0xe6, 0x07, 0x47,
  0xba, 0x3a, 0xd8, 0x17, 0xe0, 0xdf, 0xe1, 0xdf, 0x0c, 0x0f, 0x1a, 0xdb,
  0xbf, 0x1b, 0xce, 0x04, 0x0c, 0x20, 0xf0, 0xe6, 0xfa, 0xe4, 0xeb, 0x4e,
  0x0d, 0x02, 0xff, 0x00, 0xdb, 0x08, 0xda, 0xf3, 0xfb, 0x44, 0x22, 0xc5,
  0x01, 0xf3, 0x00, 0x1a, 0xd0, 0x02, 0xec, 0x0f, 0x58, 0xc5, 0xbf, 0x41,
  0x44, 0x44, 0x07, 0x02, 0x51, 0xac, 0xf4, 0x51, 0xf5, 0xee, 0x35, 0xdb,
  0x05, 0x01, 0x00, 0xe8, 0xe1, 0x1f, 0xe5, 0xa9, 0xc7, 0x44, 0x47, 0xf9,
  0xfe, 0xca, 0xc6, 0xf7, 0xe1, 0xfe, 0xfb, 0xc6, 0xf1, 0xe0, 0x1a, 0xe0,
  0xb8, 0x07, 0xf4, 0x12, 0xd2, 0x16, 0x23, 0x18, 0x00, 0xf6, 0xee, 0x1e,
  0x55, 0x2a, 0x3c, 0xe4, 0xf2, 0xfa, 0xec, 0xcb, 0xfd, 0xac, 0x03, 0xb8,
  0x2b, 0x26, 0x34, 0xdf, 0x0c, 0x41, 0x41, 0xc1, 0xf7, 0x81, 0xbf, 0xf9,
  0xf2, 0x31, 0x1b, 0xde, 0x0d, 0x0f, 0xe9, 0xf5, 0x13, 0x3b, 0x15, 0x02,
  0xd8, 0xd3, 0xe9, 0x5f, 0xf4, 0x17, 0x27, 0xf5, 0xcb, 0xdd, 0xed, 0x0b,
  0xc6, 0x20, 0xfe, 0x1e, 0x1d, 0xf5, 0x39, 0x11, 0x0f, 0xeb, 0xea, 0xf0,
  0x16, 0x16, 0xde, 0x38, 0x38, 0xb3, 0xef, 0x18, 0xc0, 0x38, 0xee, 0x18,
  0xe8, 0x14, 0x44, 0xef, 0xcb, 0xf2, 0x2c, 0xf1, 0x38, 0x26, 0x0d, 0xce,
  0x29, 0xb0, 0x27, 0x15, 0xc7, 0x05, 0x14, 0x25, 0xd0, 0xcf, 0xdf, 0xf0,
  0x0e, 0xf7, 0xf1, 0xdd, 0xb7, 0x07, 0x0d, 0xe5, 0xd5, 0xf9, 0xcd, 0x09,
  0xe7, 0xed, 0x1d, 0x1a, 0x03, 0xde, 0x00, 0x03, 0xfb, 0xbd, 0xe4, 0x07,
  0xf3, 0x17, 0x19, 0xd3, 0xcd, 0xbc, 0x28, 0x08, 0xc3, 0xc9, 0x42, 0xf5,
  0x31, 0xb8, 0xf4, 0xf5, 0x3a, 0xfa, 0x2c, 0xf0, 0x26, 0xdd, 0xfe, 0xdd,
  0xf4, 0x41, 0xfc, 0xde, 0x03, 0xdd, 0xd3, 0xd5, 0x30, 0x16, 0x22, 0x08,
  0x02, 0xd3, 0x00, 0xaa, 0xef, 0xf1, 0xcc, 0x31, 0x39, 0x01, 0xe6, 0x44,
  0x09, 0x1b, 0xb9, 0x35, 0x11, 0xc0, 0xce, 0xbc, 0xe8, 0xee, 0xfb, 0xc0,
  0x31, 0x2b, 0x17, 0x1b, 0xf8, 0x34, 0xd9, 0x0d, 0x22, 0xf1, 0x18, 0xc9,
  0xe1, 0x09, 0x20, 0x0a, 0xed, 0x9e, 0x33, 0xf2, 0xe8, 0x21, 0xe5, 0xe5,
  0x3c, 0x27, 0x59, 0x0e, 0x0d, 0x26, 0xdc, 0x30, 0xf2, 0x0f, 0x23, 0xf3,
  0xf3, 0x33, 0x15, 0x01, 0x13, 0xec, 0xff, 0xdd, 0xea, 0xf0, 0x04, 0x26,
  0x14, 0xd6, 0x14, 0xf4, 0xbe, 0xda, 0x51, 0xc9, 0xd9, 0xab, 0xe4, 0x02,
  0xc9, 0x00, 0xde, 0xfe, 0xd3, 0x34, 0x1e, 0xb4, 0xe1, 0xdd, 0xe7, 0x2a,
  0x0f, 0xfa, 0xf7, 0xd0, 0x2d, 0x17, 0xf0, 0xc0, 0xc6, 0xd5, 0xe0, 0x12,
  0xcc, 0xda, 0x18, 0x21, 0xfb, 0xd3, 0xf3, 0x28, 0xf4, 0x0e, 0x10, 0x38,
  0xe7, 0x23, 0x0b, 0x3d, 0xab, 0x1f, 0xee, 0x36, 0xdc, 0x48, 0x0a, 0xfb,
  0xfe, 0xf4, 0x28, 0x21, 0x18, 0xfa, 0x0e, 0x29, 0x05, 0x1d, 0xdd, 0xf7,
  0xeb, 0xb5, 0x1c, 0xc7, 0x2d, 0xfa, 0x06, 0xf0, 0x45, 0x9e, 0x2c, 0xd4,
  0xd9, 0xf4, 0xff, 0xfe, 0x09, 0xcc, 0x02, 0xf2, 0xf0, 0x0a, 0xf1, 0x0b,
  0x43, 0x1f, 0x23, 0x29, 0x49, 0x07, 0xfe, 0xf6, 0x14, 0x01, 0xb4, 0x15,
  0x1e, 0xff, 0x31, 0xd1, 0x15, 0xcd, 0xde, 0xd9, 0xeb, 0xd1, 0xfe, 0x04,
  0x02, 0x2f, 0x23, 0xfd, 0x30, 0x48, 0x2a, 0x18, 0xe8, 0xa1, 0xf2, 0x04,
  0xf1, 0x20, 0x49, 0xfd, 0x36, 0xbc, 0xbe, 0xa2, 0x30, 0xf4, 0x1f, 0x18,
  0x20, 0xb3, 0xf5, 0xde, 0x04, 0x26, 0xdd, 0x35, 0xd7, 0xe3, 0xf8, 0x2b,
  0xeb, 0xd0, 0xf8, 0x0f, 0xa6, 0x1c, 0xfe, 0x28, 0xd8, 0x06, 0xd5, 0x3e,
  0xe7, 0xf7, 0x39, 0x44, 0x00, 0x0d, 0x08, 0x31, 0xa6, 0x4b, 0x1e, 0x30,
  0x03, 0x13, 0x2f, 0x30, 0xe6, 0xbb, 0x7f, 0x01, 0xfb, 0xfa, 0x03, 0x63,
  0x0a, 0xdf, 0x3a, 0xdb, 0x24, 0xec, 0x0b, 0xf5, 0x0c, 0x0e, 0x05, 0x03,
  0x27, 0x08, 0xf3, 0xe3, 0x4d, 0xb8, 0xe4, 0x3d, 0x2e, 0xe1, 0xd3, 0xf1,
  0x0d, 0xbe, 0xe9, 0x04, 0xde, 0xd1, 0xfc, 0x38, 0xf2, 0x2c, 0x11, 0x10,
  0x14, 0xf5, 0xe5, 0x2b, 0xe3, 0xcc, 0x5a, 0xfe, 0xc4, 0x2b, 0xaf, 0x12,
  0x2e, 0x0d, 0x18, 0xf9, 0xfb, 0xe1, 0x3f, 0x0e, 0xf0, 0xa1, 0xcc, 0x42,
  0xe4, 0x0d, 0xea, 0x32, 0x40, 0x03, 0x26, 0xde, 0x04, 0xfe, 0x27, 0xeb,
  0xf5, 0x1a, 0x30, 0xff, 0x15, 0xe2, 0x03, 0xe2, 0xf9, 0xa9, 0x10, 0xcc,
  0x1e, 0x11, 0x22, 0x03, 0x2c, 0xd3, 0x38, 0x32, 0xec, 0xf7, 0x05, 0xde,
  0xe5, 0x1c, 0x1d, 0xf4, 0xf3, 0xad, 0xfa, 0x0d, 0xd6, 0xaa, 0x0b, 0xfe,
  0x2b, 0x1c, 0xdc, 0x0c, 0xe4, 0x0b, 0xea, 0x2c, 0xb2, 0x23, 0xeb, 0xe9,
  0x2b, 0xda, 0x01, 0x37, 0xbf, 0x09, 0xc1, 0x22, 0xf6, 0x16, 0x32, 0xec,
  0x29, 0x12, 0xf1, 0xd5, 0x26, 0xec, 0xe2, 0x05, 0x1a, 0x3f, 0xf7, 0x0a,
  0x35, 0xbc, 0x22, 0xfd, 0x19, 0xf0, 0xe8, 0xd1, 0x25, 0xe9, 0xf6, 0xe5,
  0x18, 0x11, 0xf5, 0x05, 0x02, 0x3e, 0x03, 0xe0, 0xde, 0x34, 0xc6, 0x0e,
  0xd2, 0xc2, 0x27, 0x27, 0x3c, 0x18, 0x0c, 0x03, 0x3c, 0x21, 0x19, 0x3d,
  0x02, 0xff, 0x1a, 0xd4, 0x07, 0xec, 0x00, 0x2b, 0xf9, 0x01, 0x10, 0xf3,
  0xf5, 0x20, 0x0f, 0x15, 0x19, 0x0c, 0x14, 0x0e, 0xe4, 0x0f, 0xe8, 0x0b,
  0x1a, 0x0a, 0x30, 0xe1, 0x0b, 0x0a, 0xf7, 0x16, 0x39, 0x0f, 0x49, 0xeb,
  0xc0, 0xd2, 0x09, 0xff, 0x0e, 0x06, 0x16, 0xe9, 0xdc, 0xe6, 0xf1, 0xe2,
  0x23, 0xe6, 0xff, 0xe0, 0xd3, 0x93, 0xd6, 0x2b, 0xeb, 0x29, 0x2f, 0xda,
  0xed, 0xd6, 0xee, 0x31, 0xe0, 0xf1, 0x21, 0xcc, 0x0b, 0xc3, 0xe1, 0x16,
  0xfd, 0x07, 0xfa, 0xae, 0x23, 0x39, 0xf3, 0xef, 0xec, 0x01, 0x02, 0x4f,
  0x22, 0x2f, 0xfb, 0x11, 0x0f, 0xeb, 0x2a, 0x52, 0xec, 0x2e, 0x34, 0x00,
  0x28, 0x1e, 0x3c, 0x20, 0xe5, 0x6c, 0xfb, 0x3d, 0x01, 0x44, 0x09, 0xb8,
  0x10, 0x24, 0xf5, 0x92, 0xab, 0x20, 0x39, 0xf0, 0xda, 0x14, 0xf9, 0x2f,
  0xed, 0xef, 0xe7, 0x01, 0xbc, 0x02, 0xb6, 0x3d, 0x2f, 0xb7, 0xf6, 0xfa,
  0x2b, 0x07, 0x08, 0xe3, 0x16, 0xd8, 0x0d, 0xdd, 0x24, 0xff, 0xec, 0x2f,
  0x10, 0xcf, 0x24, 0x2b, 0x32, 0x3a, 0xae, 0x14, 0xf6, 0x1a, 0x2c, 0x16,
  0xfa, 0xea, 0xee, 0x0d, 0x27, 0xbf, 0x13, 0xd0, 0x1c, 0x1a, 0x1b, 0x15,
  0xe8, 0x47, 0xfd, 0xd7, 0x0d, 0x43, 0x26, 0x22, 0x0c, 0x1e, 0x28, 0x1d,
  0xd1, 0x1c, 0x2e, 0x35, 0x30, 0xa4, 0x3a, 0xac, 0x11, 0xed, 0x1c, 0xf1,
  0xe8, 0xbd, 0x08, 0xe6, 0xd6, 0x04, 0xcc, 0xf8, 0xe4, 0x02, 0x45, 0xea,
  0x10, 0x3c, 0x23, 0x40, 0x27, 0x23, 0x1b, 0x2f, 0x10, 0xd1, 0x25, 0xff,
  0xf7, 0xf3, 0x12, 0x0f, 0x1d, 0xe7, 0x1b, 0xff, 0xe9, 0xe6, 0xe6, 0x27,
  0x02, 0xfe, 0xee, 0x0a, 0x3c, 0x00, 0xee, 0xf0, 0x1d, 0x49, 0x08, 0xb7,
  0x1a, 0xd9, 0x1b, 0x35, 0xe6, 0xfc, 0xee, 0xef, 0xcc, 0x20, 0x09, 0x12,
  0x12, 0xfa, 0xba, 0x23, 0x04, 0xc7, 0xe8, 0xd9, 0xe3, 0x20, 0x38, 0x0c,
  0xf5, 0xff, 0xef, 0xfa, 0xea, 0xf0, 0xff, 0xff, 0x04, 0x00, 0x00, 0x00,
  0x20, 0x00, 0x00, 0x00, 0x4f, 0xff, 0xff, 0xff, 0xc0, 0xfd, 0xff, 0xff,
  0xee, 0xfb, 0xff, 0xff, 0x52, 0xfc, 0xff, 0xff, 0xd8, 0xfe, 0xff, 0xff,
  0x0d, 0xff, 0xff, 0xff, 0x4c, 0x02, 0x00, 0x00, 0x1d, 0x00, 0x00, 0x00,
  0x16, 0xf1, 0xff, 0xff, 0x04, 0x00, 0x00, 0x00, 0x50, 0x00, 0x00, 0x00,
  0xce, 0xfd, 0xff, 0xff, 0x54, 0x06, 0x00, 0x00, 0x5b, 0xff, 0xff, 0xff,
  0x78, 0xfc, 0xff, 0xff, 0x6c, 0x02, 0x00, 0x00, 0x18, 0x04, 0x00, 0x00,
  0x82, 0x02, 0x00, 0x00, 0xaf, 0xfb, 0xff, 0xff, 0x10, 0xfb, 0xff, 0xff,
  0xe9, 0xf9, 0xff, 0xff, 0x51, 0x07, 0x00, 0x00, 0xe9, 0xf6, 0xff, 0xff,
  0xde, 0xfc, 0xff, 0xff, 0x6d, 0xf7, 0xff, 0xff, 0x14, 0x11, 0x00, 0x00,
  0xb9, 0x07, 0x00, 0x00, 0xaa, 0x01, 0x00, 0x00, 0x63, 0xfe, 0xff, 0xff,
  0x5b, 0xf4, 0xff, 0xff, 0x0f, 0x06, 0x00, 0x00, 0x72, 0xf1, 0xff, 0xff,
  0x04, 0x00, 0x00, 0x00, 0x20, 0x0d, 0x00, 0x00, 0xdc, 0xe8, 0x17, 0xf6,
  0xf6, 0xe9, 0x0f, 0x1b, 0x53, 0x1a, 0x0f, 0x08, 0x0d, 0xdb, 0xb7, 0x2b,
  0xd2, 0x11, 0x30, 0x22, 0xf4, 0x0c, 0xfb, 0x0c, 0xdd, 0xe9, 0x22, 0xfb,
  0x0b, 0x06, 0x02, 0x03, 0xf7, 0x12, 0x01, 0xe2, 0xeb, 0x29, 0xf0, 0x28,
  0xc7, 0xf9, 0x04, 0x02, 0xf3, 0x34, 0xf8, 0xf7, 0xfc, 0xf0, 0xe1, 0xf6,
  0xfa, 0xf1, 0xdf, 0xf8, 0x0d, 0x33, 0xff, 0x0b, 0x10, 0xf8, 0xe6, 0x2a,
  0x0c, 0x15, 0xf2, 0x04, 0xef, 0x13, 0x1e, 0xfe, 0xee, 0xe3, 0x2d, 0x0c,
  0x00, 0xf2, 0xfa, 0x0c, 0x15, 0xdf, 0x03, 0x0c, 0x03, 0xf6, 0x18, 0x15,
  0x04, 0x05, 0xfe, 0xe5, 0x2b, 0xfb, 0x00, 0xfa, 0x13, 0x23, 0xf4, 0xd9,
  0xda, 0xe8, 0xfa, 0x44, 0xf2, 0xf0, 0xf7, 0x06, 0xe4, 0xed, 0xfb, 0xe5,
  0xc9, 0xe6, 0xef, 0x26, 0xf0, 0xe8, 0x0a, 0xfa, 0xe2, 0xfa, 0x22, 0xec,
  0x0e, 0x05, 0xee, 0x0b, 0xbb, 0xec, 0xf5, 0x1c, 0x15, 0xfe, 0xf7, 0xde,
  0x21, 0x44, 0x28, 0xd2, 0xe4, 0xf7, 0xe8, 0xf5, 0xdc, 0xfd, 0xfa, 0xf6,
  0x05, 0x23, 0xe8, 0x0f, 0xe9, 0x3e, 0xe0, 0xfe, 0x27, 0x13, 0x04, 0xf9,
  0xf3, 0xef, 0x02, 0x16, 0xf1, 0x28, 0x1d, 0x18, 0x1c, 0x34, 0x31, 0x0b,
  0x0c, 0x0f, 0x0e, 0x0c, 0xa7, 0x1a, 0x1d, 0xf2, 0xf5, 0x00, 0xfb, 0x25,
  0xe2, 0xaa, 0x23, 0xce, 0xda, 0xc9, 0xcf, 0x05, 0x13, 0xde, 0xd4, 0x2d,
  0x1a, 0xfa, 0xec, 0x26, 0x03, 0x02, 0xed, 0x31, 0x26, 0xf6, 0x25, 0x12,
  0x13, 0x38, 0x31, 0x0e, 0xf3, 0x11, 0x07, 0xd4, 0xeb, 0xec, 0xff, 0xe7,
  0x05, 0x1f, 0xf8, 0x35, 0x14, 0x19, 0x27, 0xf5, 0xe1, 0x1e, 0x17, 0xf8,
  0x23, 0x13, 0x2d, 0xd0, 0xd6, 0x16, 0xe4, 0x22, 0xfd, 0xea, 0xf8, 0x1f,
  0xfa, 0x05, 0xf0, 0xe4, 0xe0, 0xec, 0xf7, 0x45, 0x04, 0xfd, 0x0d, 0x10,
  0xff, 0x0f, 0x02, 0x25, 0xd9, 0x18, 0x1c, 0xee, 0x0a, 0x53, 0xfc, 0xce,
  0x14, 0xfe, 0x2b, 0xf1, 0x25, 0x34, 0x23, 0xd3, 0xf6, 0xe9, 0x1c, 0x3e,
  0xcb, 0xc2, 0x25, 0xf6, 0xf5, 0xf9, 0x18, 0x1a, 0xd3, 0x12, 0xd5, 0x1e,
  0x38, 0xee, 0xfe, 0x0e, 0x04, 0x22, 0x43, 0x17, 0x14, 0xc7, 0xf1, 0x02,
  0xb8, 0xcc, 0xfa, 0x1d, 0xf3, 0xfb, 0xee, 0xbd, 0x31, 0xee, 0x0b, 0x19,
  0xee, 0x2b, 0x29, 0x1d, 0x15, 0x20, 0xf0, 0x0b, 0x15, 0x41, 0x38, 0x1f,
  0xf6, 0xdc, 0x04, 0x0b, 0x02, 0x0b, 0x0d, 0xe4, 0xfe, 0x25, 0x1a, 0xfc,
  0xdc, 0x0b, 0x0c, 0x14, 0x05, 0xd6, 0x15, 0x1b, 0xef, 0xe9, 0xf0, 0x1e,
  0xd4, 0xe2, 0xee, 0x05, 0x10, 0xc8, 0x18, 0xfc, 0x24, 0xd1, 0x29, 0xf9,
  0x27, 0x03, 0xff, 0xf0, 0xde, 0x12, 0x17, 0x06, 0x10, 0x11, 0x06, 0xe6,
  0xeb, 0xe9, 0xef, 0xfe, 0x05, 0x2a, 0x02, 0x0f, 0xeb, 0xdf, 0xdd, 0xf4,
  0x02, 0xfe, 0x09, 0x16, 0x0a, 0x0f, 0x0b, 0x0a, 0xfe, 0x1d, 0xfb, 0x11,
  0x0f, 0xfb, 0xe5, 0x0b, 0xf1, 0x16, 0x27, 0x33, 0x01, 0x1c, 0xfe, 0x1e,
  0xf4, 0x04, 0x19, 0x1f, 0x15, 0xf8, 0xe0, 0x15, 0xff, 0xf4, 0x13, 0xd4,
  0xea, 0x29, 0x29, 0x02, 0x18, 0xf2, 0x1e, 0xf3, 0xee, 0x05, 0xe9, 0x1f,
  0xf8, 0xce, 0x03, 0x00, 0xf1, 0xee, 0x1a, 0x0c, 0xf6, 0xfc, 0xf8, 0x1c,
  0xdb, 0x10, 0x08, 0x38, 0xf4, 0xd8, 0xf5, 0xff, 0xce, 0xc3, 0x00, 0x2d,
  0x2b, 0x23, 0x1d, 0xff, 0xbe, 0xcf, 0xfd, 0x0b, 0xe3, 0x16, 0xe1, 0xdf,
  0xda, 0x0c, 0xeb, 0xf6, 0xea, 0xd0, 0xd7, 0x12, 0x12, 0xe8, 0xf0, 0xf3,
  0xeb, 0x07, 0x44, 0xf3, 0xf7, 0x2b, 0xeb, 0x1b, 0xe3, 0xe4, 0xe9, 0xf3,
  0xc7, 0xe2, 0xf7, 0x1d, 0xd1, 0xd5, 0x0b, 0x0c, 0xee, 0xfe, 0xf6, 0xe7,
  0xe8, 0x02, 0xde, 0xee, 0xd4, 0xda, 0xef, 0xf9, 0xe6, 0xe5, 0xdf, 0x00,
  0x0b, 0xe6, 0x05, 0x03, 0x11, 0xe7, 0x21, 0xff, 0x07, 0x1a, 0xec, 0x15,
  0x32, 0x10, 0x1b, 0xd0, 0x02, 0x16, 0xf7, 0x1b, 0xda, 0x19, 0x0b, 0x09,
  0xf5, 0xe1, 0x11, 0x22, 0xf8, 0xd6, 0x1f, 0xea, 0x11, 0xd8, 0xf2, 0xd1,
  0xf9, 0x13, 0xe3, 0x14, 0xeb, 0x34, 0x23, 0x43, 0x10, 0x2d, 0xeb, 0xf0,
  0xf7, 0xb7, 0xdb, 0x02, 0xdf, 0xf9, 0xf9, 0x2e, 0xeb, 0x47, 0xe2, 0xf3,
  0x12, 0xda, 0xe1, 0x1e, 0x1f, 0xc9, 0x03, 0x21, 0x1a, 0x00, 0x00, 0xe2,
  0x04, 0x1e, 0xe9, 0x41, 0xf3, 0xd3, 0xfa, 0xeb, 0x06, 0xfc, 0x00, 0xf4,
  0x25, 0xf4, 0xe3, 0xf4, 0xce, 0x29, 0xd8, 0xf8, 0xd8, 0xeb, 0xf2, 0xc0,
  0xe2, 0x3c, 0xeb, 0xef, 0x10, 0xfc, 0xc6, 0xf8, 0x1b, 0xbe, 0xe6, 0x02,
  0xd0, 0x13, 0xec, 0xfe, 0x14, 0xe7, 0xfa, 0x0a, 0xdc, 0x0a, 0xfb, 0xe0,
  0x0b, 0xe4, 0xb7, 0x53, 0xe6, 0xef, 0xea, 0xff, 0xd2, 0xda, 0xe8, 0xd4,
  0x0c, 0xef, 0xeb, 0xc3, 0x11, 0xd5, 0xec, 0x04, 0xd7, 0x01, 0x2f, 0xd8,
  0xc1, 0x9b, 0xf4, 0xd5, 0xf0, 0xd3, 0xf9, 0xeb, 0xe9, 0x10, 0xf4, 0x02,
  0x0f, 0x05, 0x02, 0x05, 0xdb, 0xca, 0xf9, 0x0a, 0x0b, 0xf6, 0xec, 0xfd,
  0xc6, 0xf1, 0xed, 0xe1, 0xd0, 0xb7, 0xf6, 0x2f, 0x21, 0xf6, 0xfc, 0x2d,
  0xff, 0x13, 0x1b, 0x01, 0x0e, 0xe6, 0xde, 0x42, 0xe5, 0x3b, 0x11, 0x15,
  0xdd, 0xf5, 0xfa, 0x0f, 0x06, 0x39, 0xcd, 0x29, 0x22, 0xcf, 0xc8, 0xc0,
  0xe8, 0xf2, 0x06, 0x3f, 0xdb, 0x01, 0xf2, 0x08, 0x1c, 0xe3, 0x11, 0x08,
  0xff, 0xf1, 0x0e, 0xc0, 0x15, 0xf0, 0x18, 0xf2, 0xfa, 0xe9, 0x0b, 0x20,
  0x13, 0xf3, 0xcc, 0x06, 0xe4, 0xc5, 0x02, 0x3b, 0xf0, 0xf3, 0xf0, 0x25,
  0x02, 0x13, 0x11, 0xff, 0x1a, 0xff, 0xd1, 0x15, 0xfa, 0x1d, 0x05, 0xe7,
  0xef, 0xf3, 0xe1, 0xf8, 0xe5, 0x10, 0x16, 0xe5, 0x14, 0x04, 0xcc, 0x07,
  0x06, 0x05, 0xf5, 0xd0, 0x04, 0xc6, 0xee, 0x10, 0xe8, 0xc4, 0x0c, 0x1b,
  0x18, 0xe9, 0xd6, 0x08, 0xea, 0x0b, 0xfe, 0x64, 0x1e, 0x0b, 0xed, 0xee,
  0x30, 0x09, 0xf5, 0xcb, 0x19, 0x03, 0x0b, 0xf7, 0x14, 0x0a, 0x16, 0x01,
  0x27, 0xff, 0x2c, 0xd2, 0x15, 0x00, 0x12, 0xef, 0x22, 0xeb, 0xe7, 0xbe,
  0xeb, 0xd5, 0xd6, 0x01, 0xff, 0xc0, 0x1c, 0x1d, 0x1c, 0x19, 0xf6, 0x1d,
  0xef, 0x05, 0x31, 0xfd, 0xf4, 0xfe, 0x42, 0xec, 0xe5, 0xf6, 0x00, 0x05,
  0xb3, 0xe1, 0x0a, 0x08, 0xf5, 0xf6, 0x08, 0x2b, 0xf5, 0xdc, 0xda, 0x2f,
  0x15, 0x04, 0xdf, 0xed, 0xf5, 0x03, 0xe4, 0x27, 0x0d, 0x06, 0x1e, 0x17,
  0xee, 0x23, 0x3a, 0x32, 0x0e, 0x1f, 0x0a, 0xed, 0x14, 0xf3, 0x21, 0xda,
  0xf4, 0xe7, 0x19, 0x1a, 0x12, 0x2e, 0xf7, 0xc1, 0x00, 0x0b, 0x0e, 0x0e,
  0x2e, 0xf1, 0x27, 0xd6, 0x12, 0xe7, 0xf0, 0xf4, 0xd2, 0xe4, 0x22, 0x13,
  0xe0, 0xf9, 0xd8, 0x03, 0xcc, 0xe5, 0x1a, 0xfb, 0xed, 0x0c, 0xfa, 0x35,
  0xe6, 0x05, 0xfe, 0x2c, 0x07, 0x1c, 0x0e, 0x0f, 0xee, 0x14, 0x07, 0xfa,
  0xe6, 0x21, 0x17, 0x17, 0x18, 0xdf, 0xf2, 0xe1, 0xe8, 0x03, 0xfc, 0xd2,
  0xb4, 0xfd, 0x0a, 0xfc, 0x0f, 0xd7, 0xfd, 0x2b, 0x33, 0x0a, 0xf8, 0xf9,
  0xf0, 0xfa, 0x01, 0xff, 0x0d, 0x17, 0xf7, 0xfc, 0x1d, 0x02, 0x12, 0x11,
  0x1e, 0xf5, 0x0c, 0x1a, 0x21, 0x20, 0x02, 0xea, 0x15, 0x04, 0xee, 0x00,
  0x23, 0x3b, 0xd5, 0x38, 0x23, 0x1c, 0xfa, 0x0b, 0xfd, 0x19, 0xf8, 0xd9,
  0x3c, 0x1d, 0x0a, 0x12, 0x07, 0x27, 0x02, 0xf7, 0xe7, 0xfe, 0xfa, 0x12,
  0xf9, 0xec, 0xf8, 0xed, 0x12, 0xfd, 0x0c, 0x1c, 0x11, 0x0d, 0x2c, 0x08,
  0xee, 0xf2, 0xcf, 0xe1, 0x0a, 0x28, 0xe9, 0x2d, 0x0d, 0x04, 0xdd, 0x12,
  0x18, 0xf6, 0x0a, 0xea, 0xec, 0xdc, 0xe5, 0x09, 0x07, 0xe7, 0xe4, 0xe5,
  0xcb, 0x12, 0x0a, 0xfd, 0x14, 0x00, 0xed, 0x15, 0x1b, 0x05, 0xfa, 0xf2,
  0x12, 0x0c, 0xf6, 0xfa, 0xf0, 0x09, 0x06, 0xff, 0xdd, 0xcd, 0xeb, 0xe8,
  0x16, 0x10, 0xe5, 0xff, 0x1c, 0xe4, 0xf0, 0xfb, 0xfe, 0x02, 0xfc, 0xee,
  0xc3, 0x05, 0x03, 0x0e, 0xe7, 0x0e, 0x08, 0xff, 0xec, 0x1c, 0x08, 0xef,
  0xed, 0xdb, 0x29, 0x06, 0xef, 0x1a, 0xfd, 0xfe, 0xd7, 0x13, 0x1e, 0xe8,
  0xf7, 0x3b, 0x04, 0xfe, 0xc8, 0x06, 0xfa, 0x2a, 0x09, 0x18, 0xfd, 0xee,
  0xf4, 0xdf, 0x09, 0x0d, 0x1b, 0xf5, 0xe0, 0xcf, 0x1b, 0xf1, 0x0a, 0x10,
  0xe3, 0xf9, 0xd6, 0xe8, 0xfd, 0x1d, 0x0f, 0x0e, 0x06, 0x06, 0xed, 0xdc,
  0x32, 0xff, 0x1f, 0x1a, 0x07, 0xe5, 0xf9, 0xfd, 0x13, 0x24, 0xe4, 0x19,
  0xf4, 0xdd, 0xf5, 0x0a, 0x15, 0x10, 0xe3, 0xf2, 0x09, 0xef, 0xd1, 0x30,
  0xf9, 0xea, 0x28, 0x15, 0x31, 0xeb, 0xfd, 0x53, 0xe6, 0x1f, 0xe9, 0x17,
  0x2d, 0xfa, 0xf6, 0x09, 0x28, 0x16, 0xdf, 0xf8, 0x20, 0x27, 0xf3, 0x05,
  0xfb, 0x1f, 0x1d, 0xfa, 0x05, 0x18, 0xe8, 0xf3, 0xc4, 0x22, 0xe5, 0x27,
  0xf2, 0x39, 0x2c, 0x0e, 0x4c, 0xf5, 0xe6, 0x0c, 0xd5, 0xeb, 0xfa, 0x02,
  0xe9, 0x1e, 0xdc, 0xe5, 0x22, 0xff, 0xf3, 0xc8, 0x24, 0x20, 0xfe, 0x35,
  0xfa, 0xf6, 0xe5, 0xe6, 0xe2, 0xf2, 0x2e, 0xdc, 0xe3, 0x16, 0xff, 0x0f,
  0xeb, 0x0b, 0xdc, 0xe8, 0xec, 0xfe, 0x13, 0xeb, 0x0c, 0xfa, 0x20, 0xb7,
  0xdc, 0xff, 0xdf, 0x18, 0xdb, 0x35, 0x14, 0x13, 0xdd, 0xdd, 0xd6, 0x0e,
  0x29, 0xce, 0x0e, 0xe7, 0x19, 0x17, 0x17, 0xed, 0x31, 0x0a, 0x2e, 0xf5,
  0x20, 0x1e, 0x36, 0xb6, 0xfa, 0x03, 0x1c, 0x06, 0x20, 0x13, 0x06, 0xd2,
  0xda, 0x0a, 0xeb, 0xf0, 0xca, 0x1e, 0x0a, 0x1c, 0x13, 0x11, 0xdf, 0x0c,
  0xfa, 0xee, 0xfe, 0x1c, 0x42, 0x12, 0x3d, 0xe6, 0x1a, 0x1e, 0xf8, 0x02,
  0x01, 0xe8, 0xe9, 0x18, 0xf1, 0xe7, 0x07, 0x08, 0x0b, 0x10, 0x0f, 0x1d,
  0x07, 0x0f, 0xf3, 0x0c, 0x2c, 0x02, 0xf7, 0x20, 0x0a, 0x45, 0xf9, 0x0f,
  0x46, 0xe2, 0x1d, 0x3c, 0x2e, 0xed, 0xfd, 0x1b, 0x0c, 0x0b, 0x0b, 0x14,
  0xb4, 0xf5, 0x17, 0xea, 0xf8, 0xfb, 0xfa, 0xed, 0x16, 0xea, 0x03, 0x01,
  0x1b, 0x15, 0xfd, 0xe3, 0x25, 0x17, 0x12, 0xf6, 0x1f, 0x29, 0xcc, 0xf9,
  0xde, 0xf5, 0x1e, 0x2e, 0xe6, 0x17, 0x42, 0xec, 0xf3, 0xf4, 0x00, 0x25,
  0x19, 0xdc, 0x0d, 0xbe, 0xc8, 0x07, 0xf0, 0xfa, 0xdd, 0xe4, 0xe6, 0x2a,
  0x1a, 0xe9, 0x06, 0x1c, 0x18, 0x01, 0x1e, 0x11, 0xf9, 0xe2, 0x0a, 0x14,
  0xdc, 0x08, 0xef, 0x4b, 0xf2, 0xf9, 0xff, 0x05, 0x06, 0x27, 0xf0, 0x2c,
  0x16, 0x06, 0xfb, 0xf4, 0x1b, 0xe6, 0xf4, 0x16, 0x21, 0x07, 0xdf, 0xe7,
  0x10, 0xe9, 0x00, 0x13, 0xf4, 0x01, 0x03, 0xfe, 0x04, 0xdc, 0x1b, 0x3e,
  0xfa, 0x0a, 0x0e, 0x63, 0xf9, 0x07, 0xdd, 0xc8, 0xf3, 0xca, 0xfa, 0xf7,
  0x2f, 0xf0, 0xfa, 0x35, 0x0c, 0xc9, 0xe1, 0xfd, 0x06, 0x0d, 0x00, 0x10,
  0x05, 0xfe, 0xe3, 0x2f, 0x16, 0x14, 0x06, 0xe9, 0x0b, 0xf4, 0xf6, 0xe4,
  0xeb, 0x06, 0xfc, 0xdd, 0x0f, 0xec, 0xe7, 0xc2, 0xfa, 0xf7, 0x16, 0x2c,
  0x05, 0x32, 0x0d, 0x00, 0xe2, 0x09, 0xde, 0x1d, 0x1c, 0x0a, 0x00, 0x0e,
  0xdd, 0xd6, 0xe8, 0xdb, 0xe6, 0x03, 0xec, 0x1d, 0xfc, 0xf9, 0xeb, 0x15,
  0xef, 0xf0, 0x0b, 0xf8, 0x09, 0x12, 0x08, 0xfb, 0x25, 0xf9, 0x0f, 0xf7,
  0xe4, 0xe9, 0x28, 0x16, 0x46, 0xd0, 0x01, 0x0a, 0x02, 0xfa, 0xda, 0xff,
  0x07, 0xee, 0x3c, 0x26, 0xf9, 0xd2, 0xef, 0x10, 0xbb, 0x22, 0x2c, 0x19,
  0xe5, 0xeb, 0x0a, 0x0d, 0xec, 0xf9, 0xc4, 0x0d, 0x05, 0x05, 0x01, 0xf3,
  0x2e, 0xfe, 0xe4, 0x17, 0xd4, 0x1e, 0xe6, 0x3f, 0x1c, 0x01, 0x06, 0x05,
  0xf6, 0xd5, 0xf0, 0xed, 0xf4, 0x03, 0xfb, 0x03, 0x04, 0x14, 0x04, 0xbe,
  0xdf, 0xfa, 0xe7, 0x11, 0x1b, 0xec, 0xe7, 0xf8, 0x23, 0x3a, 0xe0, 0xfd,
  0xca, 0x34, 0x23, 0x02, 0x04, 0x04, 0x12, 0xcb, 0xf2, 0xe0, 0x03, 0x31,
  0x08, 0x12, 0xd5, 0x2b, 0xc4, 0xea, 0xf3, 0xe5, 0xd5, 0xfa, 0xf3, 0xd2,
  0x26, 0x03, 0xd0, 0x22, 0xfc, 0x09, 0xef, 0xfc, 0xd7, 0xcf, 0xf5, 0xfd,
  0xfe, 0xeb, 0x0d, 0xf6, 0xe5, 0x18, 0x2d, 0x21, 0x18, 0xfe, 0x0b, 0xe2,
  0x18, 0xc3, 0x0c, 0x03, 0x01, 0x26, 0x13, 0xe2, 0xe4, 0xda, 0xe8, 0x15,
  0xf5, 0xed, 0x00, 0x0e, 0xd7, 0xde, 0x00, 0xf9, 0xdb, 0xdf, 0xf9, 0xdc,
  0xdc, 0xd0, 0xf4, 0xef, 0xe1, 0xe0, 0xe8, 0x19, 0xed, 0x15, 0x1e, 0xd5,
  0x02, 0x0e, 0x08, 0x06, 0x18, 0xd9, 0x01, 0xfd, 0xdf, 0xf7, 0x16, 0x3e,
  0xd9, 0xfb, 0xe1, 0xeb, 0xef, 0xfc, 0xff, 0x26, 0x05, 0xf0, 0x3a, 0xf6,
  0x0f, 0xd9, 0xfc, 0xf6, 0xf6, 0x0a, 0x0c, 0x1c, 0x1e, 0x33, 0x13, 0xdd,
  0xf0, 0xe8, 0xff, 0xe0, 0xfb, 0x07, 0x10, 0x22, 0xe6, 0xe9, 0xe5, 0xee,
  0xfc, 0x24, 0xfe, 0x0f, 0x0e, 0x29, 0xed, 0xf7, 0x07, 0xbe, 0x0a, 0x36,
  0xff, 0x10, 0xec, 0x08, 0x08, 0x18, 0xf4, 0x04, 0x1e, 0x00, 0xe8, 0x0d,
  0x2b, 0xeb, 0x04, 0x16, 0xfe, 0x01, 0xfb, 0x2b, 0x10, 0xe1, 0x1f, 0x21,
  0x17, 0x28, 0x1c, 0xf0, 0x06, 0x30, 0x18, 0x1b, 0x0f, 0x3d, 0x0a, 0xd6,
  0x0b, 0xdc, 0xdc, 0xf0, 0x0f, 0xf0, 0x12, 0xee, 0xeb, 0xe1, 0xfc, 0x27,
  0xe9, 0x15, 0xd2, 0x44, 0xf6, 0xe6, 0x34, 0x01, 0xc1, 0xd8, 0xfb, 0x08,
  0x0d, 0xee, 0xfb, 0xea, 0xb0, 0x0c, 0x0d, 0x34, 0xef, 0x05, 0xf1, 0x18,
  0xd3, 0xf5, 0xf8, 0x19, 0xe5, 0xf8, 0xf9, 0xee, 0x02, 0x0e, 0xf8, 0xd0,
  0xce, 0xec, 0x2f, 0xee, 0x0c, 0x0c, 0x0e, 0xd3, 0x27, 0x18, 0x08, 0xfa,
  0xac, 0xdc, 0x2c, 0x0c, 0xe6, 0x1d, 0x17, 0xe6, 0x0f, 0x17, 0xeb, 0xfb,
  0xf9, 0x18, 0xd0, 0xc8, 0x37, 0x0e, 0x16, 0x08, 0x14, 0x17, 0x3e, 0xff,
  0x1d, 0x03, 0x18, 0x12, 0x4e, 0x27, 0x13, 0xe9, 0x1f, 0x0e, 0x20, 0xd3,
  0xe8, 0x11, 0xfb, 0x01, 0xc1, 0xf5, 0x05, 0xb2, 0xf3, 0x1d, 0x04, 0xdc,
  0x0e, 0xc8, 0x11, 0xc2, 0x13, 0xca, 0xe3, 0x20, 0xc8, 0x13, 0x07, 0x4d,
  0x29, 0x15, 0xf1, 0xe1, 0x0a, 0xdf, 0x02, 0x33, 0xe8, 0x0e, 0x21, 0xfc,
  0xe6, 0x0c, 0x1d, 0x0e, 0x0e, 0x31, 0xe1, 0x13, 0x19, 0xfd, 0xcd, 0x00,
  0xf7, 0x10, 0xfd, 0x29, 0x25, 0x29, 0xf5, 0xf2, 0x09, 0xea, 0xe6, 0xee,
  0xdd, 0x1f, 0xdd, 0x1a, 0x0a, 0xf6, 0x0a, 0xeb, 0xe4, 0xdb, 0x19, 0x60,
  0x12, 0xd4, 0xf5, 0xf5, 0xff, 0xc8, 0x18, 0x38, 0xf4, 0xd5, 0x04, 0xf6,
  0x23, 0x1d, 0x29, 0x0b, 0xe8, 0xe8, 0xe9, 0xfd, 0xb9, 0x1f, 0xdd, 0x21,
  0x1d, 0xe7, 0xfe, 0xf4, 0x07, 0x10, 0xd1, 0xdc, 0x20, 0xfe, 0x02, 0xcb,
  0x11, 0x1b, 0xe5, 0xe3, 0x01, 0xba, 0xef, 0x12, 0x06, 0xe9, 0xfb, 0x3d,
  0x06, 0xed, 0x3b, 0xf0, 0xbb, 0xf8, 0x13, 0x35, 0xfa, 0xfa, 0x1b, 0xf6,
  0xf1, 0x23, 0xdf, 0xd4, 0xea, 0x04, 0xd3, 0x24, 0xf7, 0xca, 0x1a, 0xec,
  0xdb, 0xf4, 0xc8, 0x13, 0x36, 0x11, 0xf0, 0x02, 0xf9, 0xfb, 0xfc, 0x06,
  0x08, 0x23, 0xec, 0x24, 0x31, 0x1e, 0x12, 0xd7, 0xee, 0x12, 0x0e, 0xda,
  0x0f, 0xe3, 0x34, 0xe3, 0xe2, 0x2c, 0x08, 0xd7, 0xe2, 0x1e, 0xf0, 0xe9,
  0x09, 0xd4, 0xc5, 0x11, 0x18, 0xc6, 0x00, 0x1c, 0x16, 0x0c, 0xdf, 0x10,
  0x13, 0x18, 0xcb, 0xdc, 0x10, 0xe5, 0xf7, 0x28, 0x08, 0xfe, 0xd6, 0x21,
  0xf2, 0xe3, 0xf7, 0x11, 0xcb, 0xfc, 0x02, 0xe6, 0xd0, 0x10, 0xe2, 0x01,
  0x2a, 0xe9, 0xfa, 0xff, 0x56, 0x18, 0x07, 0xd8, 0x09, 0xf5, 0x0d, 0xc6,
  0x02, 0x0c, 0xdd, 0xfa, 0x06, 0xe9, 0xf9, 0x24, 0xf3, 0xdc, 0x09, 0x1e,
  0xcf, 0x12, 0x00, 0xfc, 0xf2, 0xea, 0xf9, 0xe8, 0x0d, 0xe3, 0x08, 0xd2,
  0x36, 0x1a, 0xc6, 0xfc, 0x0d, 0x16, 0xe8, 0x10, 0x17, 0xdd, 0xf0, 0xf7,
  0xf9, 0xff, 0xc6, 0x1f, 0x08, 0xd6, 0xf4, 0xd7, 0xf3, 0xd1, 0x10, 0xf0,
  0x04, 0xfa, 0xfd, 0x21, 0x19, 0xf7, 0xdd, 0x20, 0xbf, 0xe1, 0x04, 0xeb,
  0xf9, 0xea, 0xd8, 0x0a, 0xd6, 0xf7, 0x31, 0xdf, 0x09, 0x14, 0xd0, 0xf1,
  0xda, 0xf6, 0xf8, 0xf6, 0xf8, 0xf4, 0x13, 0x23, 0xc5, 0xd0, 0xf2, 0x09,
  0x10, 0x04, 0xef, 0xf9, 0x6e, 0x1d, 0x0c, 0x29, 0x05, 0xdf, 0xf1, 0xfb,
  0x2d, 0x62, 0x14, 0x28, 0x38, 0x54, 0x08, 0x14, 0xb7, 0x22, 0x26, 0xcf,
  0xe2, 0x03, 0xf3, 0x1e, 0x4b, 0xc8, 0x04, 0xc6, 0xeb, 0xcf, 0x16, 0x0a,
  0x00, 0xd9, 0xfb, 0xad, 0xdd, 0xee, 0xfc, 0x1a, 0x21, 0x30, 0xef, 0x01,
  0x2f, 0x0d, 0x09, 0xee, 0xdf, 0xf8, 0xf4, 0x31, 0x0b, 0x0f, 0x09, 0xdc,
  0xdf, 0x05, 0x1a, 0x11, 0x37, 0x02, 0xf6, 0x06, 0x34, 0x40, 0xee, 0x93,
  0xdc, 0x23, 0x04, 0x15, 0xec, 0x1b, 0xdc, 0xe3, 0xe4, 0x1a, 0xe4, 0xda,
  0x23, 0xf5, 0x07, 0xe1, 0xf3, 0xe5, 0xf7, 0xf3, 0x02, 0xfa, 0xeb, 0x30,
  0x10, 0xde, 0xd7, 0xaf, 0xdf, 0xfa, 0xea, 0x1c, 0xeb, 0x0c, 0xff, 0xd4,
  0x07, 0x2c, 0xed, 0x14, 0x10, 0x17, 0xd7, 0x06, 0x10, 0xfb, 0xee, 0x08,
  0xf5, 0x20, 0x03, 0x0e, 0xf2, 0xfb, 0x26, 0xd7, 0xfa, 0x23, 0x2f, 0xb5,
  0x04, 0x14, 0xfa, 0x2e, 0x0f, 0xf8, 0x1f, 0x24, 0x14, 0x23, 0x07, 0x1b,
  0x0f, 0x17, 0x09, 0xd0, 0x00, 0x04, 0xfe, 0xf7, 0x1a, 0xd3, 0xf5, 0x02,
  0x01, 0x0b, 0x14, 0x26, 0x05, 0x26, 0x02, 0xfb, 0x0e, 0x05, 0xfb, 0x05,
  0xeb, 0xdc, 0x17, 0x1d, 0x8d, 0xf5, 0xfe, 0xeb, 0xb9, 0xf4, 0x27, 0x1d,
  0xdf, 0xab, 0xde, 0xea, 0xb8, 0xd3, 0x06, 0x0d, 0x65, 0xe9, 0xe3, 0x3b,
  0x37, 0x05, 0xfb, 0xdf, 0xb4, 0x1e, 0xef, 0x5e, 0x58, 0xf4, 0xf9, 0xbe,
  0x07, 0x31, 0xea, 0x60, 0x07, 0x0a, 0xf2, 0x20, 0xfe, 0xbb, 0xe0, 0xcf,
  0xf8, 0xe5, 0x04, 0xfa, 0x30, 0x22, 0x08, 0xc6, 0xf6, 0xe0, 0xfe, 0xf1,
  0x41, 0xff, 0xfc, 0xd3, 0x07, 0x11, 0x2b, 0x15, 0xda, 0xfb, 0x04, 0x3c,
  0xde, 0x03, 0x16, 0xd6, 0xbf, 0xfa, 0x1e, 0xe5, 0xec, 0xe8, 0xe9, 0xca,
  0xbc, 0x2a, 0x12, 0x1d, 0xd4, 0x11, 0x36, 0x27, 0xc8, 0xff, 0x0d, 0xe9,
  0x03, 0x1d, 0xf3, 0x2f, 0x1c, 0x08, 0x14, 0x12, 0x02, 0xeb, 0xfb, 0x02,
  0x1b, 0xd2, 0x19, 0xe3, 0xe6, 0x0c, 0x03, 0xeb, 0x31, 0xfe, 0xd0, 0xe4,
  0x1a, 0x15, 0xc9, 0xe7, 0x12, 0x0e, 0xf8, 0xe8, 0x26, 0xe3, 0xfc, 0x25,
  0xd9, 0xf3, 0x07, 0xd2, 0x10, 0xf2, 0xe5, 0x0b, 0x29, 0x03, 0x0f, 0x16,
  0xf7, 0xea, 0x11, 0x0c, 0x0b, 0x09, 0x22, 0x12, 0x44, 0xf5, 0xf5, 0xed,
  0xde, 0xe3, 0xef, 0xc4, 0x13, 0xf3, 0xe9, 0x17, 0x1e, 0xe8, 0x43, 0xe8,
  0x26, 0x23, 0x3c, 0x2f, 0xb7, 0xf2, 0x20, 0xe6, 0xf5, 0xff, 0xdf, 0xe4,
  0xd4, 0xc6, 0x0b, 0xde, 0xd1, 0x0d, 0x04, 0xd3, 0x1d, 0xd8, 0xe7, 0x1a,
  0x1f, 0x38, 0x0e, 0xf4, 0xe8, 0xe7, 0xf7, 0x3d, 0x04, 0xfb, 0xe3, 0x1f,
  0xfa, 0x2b, 0x0a, 0x34, 0x37, 0x02, 0xc0, 0x0f, 0x0d, 0x01, 0x26, 0xd7,
  0xc2, 0x0f, 0x1f, 0x22, 0x03, 0xfd, 0x0a, 0xe4, 0xf8, 0x07, 0x01, 0xf9,
  0x33, 0xec, 0xe4, 0xae, 0x17, 0x09, 0x0e, 0xfb, 0xda, 0xdf, 0x1b, 0xde,
  0x0b, 0x0a, 0xd9, 0xdd, 0x01, 0xf1, 0x20, 0x0a, 0x0f, 0x42, 0x27, 0x09,
  0xe7, 0x08, 0x0a, 0x1a, 0x08, 0xe8, 0xe5, 0xfb, 0x05, 0xef, 0x0e, 0xbd,
  0x20, 0x10, 0x0c, 0x0a, 0xfa, 0x20, 0x10, 0xf5, 0x30, 0xf6, 0xf8, 0xee,
  0xe3, 0xe8, 0x2e, 0x01, 0xea, 0x0e, 0xcf, 0x08, 0x1f, 0xf3, 0xfe, 0x09,
  0x06, 0xec, 0x06, 0x04, 0x0a, 0xf7, 0x16, 0xe1, 0x13, 0x17, 0xe8, 0x01,
  0xf7, 0xf3, 0x11, 0x07, 0x3e, 0x04, 0xd9, 0xce, 0x2f, 0x06, 0x13, 0xf7,
  0xf1, 0xeb, 0x0a, 0x3c, 0x31, 0x13, 0xfd, 0x00, 0x03, 0x08, 0x10, 0x05,
  0xf7, 0xee, 0xfd, 0x19, 0x1f, 0xe6, 0x33, 0xfe, 0x05, 0x13, 0xf4, 0xf4,
  0xfa, 0xf1, 0xfa, 0xd5, 0xf0, 0x36, 0x2c, 0xe0, 0x07, 0xda, 0xe1, 0x0b,
  0x08, 0x05, 0x35, 0xcd, 0x01, 0xfc, 0xe4, 0xf0, 0xdb, 0x01, 0xf3, 0x35,
  0xd4, 0x04, 0x11, 0x51, 0x30, 0xe2, 0x1a, 0x28, 0xf9, 0xd0, 0x14, 0xfa,
  0x25, 0x2c, 0x12, 0x11, 0xe4, 0x25, 0x1b, 0xf0, 0xf2, 0x1f, 0x02, 0x29,
  0x1f, 0x19, 0xf2, 0x20, 0xe7, 0x0b, 0x00, 0x04, 0x11, 0xf9, 0x15, 0xf6,
  0xfe, 0x0e, 0x03, 0xe0, 0xfc, 0x24, 0xf0, 0xf3, 0x15, 0x0b, 0x3c, 0xe3,
  0xff, 0x19, 0x1b, 0xe9, 0x0b, 0x01, 0xd7, 0x33, 0x25, 0x29, 0x06, 0xcb,
  0xf7, 0xe4, 0x19, 0xdc, 0x05, 0xf2, 0x27, 0x3a, 0x31, 0x19, 0xe9, 0xc6,
  0x1b, 0x1c, 0x33, 0xf9, 0xe9, 0x19, 0xf8, 0x0d, 0x13, 0xe1, 0xe7, 0xff,
  0xe3, 0xfb, 0x00, 0xfd, 0x03, 0xc9, 0x07, 0x1a, 0xf9, 0x1a, 0xe9, 0x4f,
  0xe4, 0x14, 0x03, 0x08, 0x13, 0x12, 0xed, 0xd3, 0xfc, 0xf6, 0x48, 0x09,
  0xe4, 0xf2, 0xfd, 0x02, 0xd6, 0x0a, 0xec, 0xd3, 0x03, 0xfd, 0x05, 0xf8,
  0xf8, 0x32, 0x0b, 0x2c, 0xea, 0xf3, 0xdd, 0x2a, 0xe6, 0xf6, 0xff, 0x01,
  0x10, 0xe5, 0xea, 0xf7, 0x07, 0x02, 0x1d, 0xed, 0xe3, 0xf2, 0x00, 0x0b,
  0xf2, 0xd7, 0xcf, 0x0a, 0x7f, 0x04, 0xf5, 0x41, 0x27, 0xf1, 0x15, 0x0a,
  0x3e, 0x17, 0xea, 0x0c, 0x36, 0x4e, 0x07, 0x48, 0xfb, 0x1e, 0x03, 0xd7,
  0xec, 0x0a, 0xf8, 0xef, 0xe5, 0x05, 0xde, 0xad, 0x09, 0xd7, 0xe4, 0xf0,
  0xf9, 0xd0, 0xdf, 0x93, 0xf4, 0xdb, 0x25, 0x00, 0xe2, 0x14, 0x0c, 0x54,
  0x3d, 0xff, 0xe1, 0xcc, 0x0a, 0xcf, 0xf0, 0x2a, 0xec, 0x0f, 0x1f, 0xf7,
  0xda, 0x4c, 0xd6, 0x35, 0xf2, 0x18, 0x12, 0xf8, 0x3d, 0x16, 0xd3, 0xd7,
  0xdb, 0x11, 0x02, 0x22, 0x07, 0x2c, 0xe1, 0xda, 0xea, 0xf1, 0x2c, 0xff,
  0xe8, 0x02, 0xd9, 0xcc, 0xd2, 0x1d, 0xd9, 0xd8, 0xe6, 0xd7, 0x01, 0x45,
  0xfb, 0xf6, 0x22, 0xcb, 0x13, 0x11, 0xc0, 0x0e, 0xce, 0x12, 0x24, 0x25,
  0x35, 0xf9, 0xdf, 0x3e, 0x1f, 0x14, 0xd6, 0xe2, 0xbe, 0x05, 0xf9, 0xf4,
  0x42, 0x03, 0xdc, 0xec, 0xbe, 0xc8, 0xeb, 0x0b, 0xe3, 0xf0, 0x20, 0xba,
  0x00, 0x24, 0xec, 0xf7, 0xc8, 0xdb, 0x22, 0x29, 0xfd, 0x0c, 0xcf, 0x1d,
  0xe0, 0xe6, 0xe4, 0xe3, 0x0a, 0x03, 0x34, 0xff, 0xe2, 0xe3, 0xc6, 0x02,
  0x29, 0x45, 0xfd, 0x0e, 0xfa, 0xd9, 0xf6, 0x40, 0x02, 0xcb, 0x12, 0xfe,
  0x09, 0x1b, 0xce, 0xd8, 0x0c, 0x18, 0x0d, 0x1d, 0x2c, 0x2d, 0xe4, 0xd1,
  0x3e, 0x35, 0xdc, 0x2e, 0x4f, 0x18, 0xf5, 0xe4, 0xf3, 0x24, 0x02, 0xe1,
  0xca, 0xe4, 0x30, 0x03, 0x15, 0xb8, 0xff, 0xdb, 0xb5, 0xdc, 0x0d, 0xf1,
  0x13, 0xca, 0xed, 0xb8, 0x00, 0xe6, 0xe1, 0xf4, 0x09, 0x2c, 0x1b, 0x2d,
  0x1a, 0x1e, 0x0b, 0xe6, 0xd5, 0xe3, 0xfe, 0x36, 0x18, 0xf1, 0x22, 0xf7,
  0xb9, 0xf9, 0x15, 0x00, 0x02, 0x07, 0xd2, 0xed, 0x14, 0x41, 0xec, 0xb8,
  0xed, 0xe4, 0xfe, 0xff, 0x28, 0x12, 0xff, 0xed, 0x17, 0xe9, 0x1e, 0xd9,
  0x22, 0x0c, 0xc2, 0xef, 0x07, 0xd8, 0xde, 0xf2, 0xf9, 0xb2, 0x0d, 0x1f,
  0x31, 0xef, 0x20, 0xde, 0xbc, 0xdf, 0x0c, 0x21, 0x0c, 0xdd, 0xe5, 0xdd,
  0x36, 0x2b, 0x13, 0x05, 0xfa, 0xff, 0x04, 0x15, 0x09, 0xdb, 0x22, 0xc7,
  0x0d, 0xfc, 0xeb, 0xdd, 0x20, 0xea, 0xe9, 0x11, 0xc2, 0xfd, 0x0f, 0xea,
  0x50, 0x3b, 0x11, 0x25, 0x30, 0x19, 0xf0, 0x1a, 0xcb, 0x10, 0x0d, 0x27,
  0x10, 0xec, 0x17, 0xf4, 0xe7, 0xd2, 0x04, 0xf2, 0xf3, 0x11, 0xd9, 0xe9,
  0x3d, 0xd4, 0xe5, 0xdc, 0x02, 0x10, 0xdf, 0xf1, 0x0d, 0x01, 0xf5, 0xf7,
  0xde, 0x25, 0xeb, 0xd9, 0xe1, 0xd5, 0x27, 0xd3, 0xec, 0x00, 0x19, 0x17,
  0x18, 0x16, 0xda, 0xdc, 0xea, 0xe9, 0x25, 0xff, 0x33, 0x15, 0x1c, 0x00,
  0x0d, 0x38, 0xfd, 0xe4, 0xe2, 0x20, 0x2b, 0x39, 0x1d, 0x35, 0x1c, 0xee,
  0x24, 0xe6, 0x11, 0xcf, 0x14, 0x20, 0xe2, 0xef, 0x1b, 0xdc, 0xe0, 0x2d,
  0xeb, 0xf6, 0x27, 0x39, 0x27, 0x03, 0xe1, 0xf8, 0xe5, 0xf8, 0x17, 0xf8,
  0xf3, 0x02, 0x01, 0x05, 0xf4, 0xea, 0x0f, 0x01, 0xea, 0xe0, 0x05, 0x21,
  0x10, 0x04, 0xd4, 0xd7, 0xfa, 0xfa, 0x0f, 0xfa, 0x25, 0x04, 0xe5, 0xef,
  0xf6, 0xee, 0x18, 0x0a, 0xf9, 0x0f, 0xe9, 0x1e, 0x0e, 0x0e, 0x3c, 0xe6,
  0x1e, 0x0d, 0x22, 0x3a, 0x0d, 0xfe, 0x15, 0xf0, 0x0c, 0x0c, 0xfb, 0xc8,
  0x3e, 0x11, 0x32, 0xf4, 0xf8, 0xcd, 0xeb, 0xf6, 0x01, 0xea, 0xcb, 0xea,
  0x01, 0x09, 0xeb, 0x3e, 0x2b, 0x25, 0xea, 0xec, 0x15, 0x30, 0xd7, 0x3a,
  0xcc, 0xc8, 0xfb, 0xbf, 0xd8, 0xd9, 0x03, 0x11, 0x1d, 0xfc, 0x16, 0x15,
  0xef, 0x18, 0x16, 0xda, 0x20, 0xd7, 0xee, 0xfc, 0x24, 0xf2, 0x01, 0xd8,
  0xdb, 0x11, 0x1b, 0xeb, 0x1c, 0x0f, 0x23, 0xe5, 0xa0, 0xfb, 0xff, 0xff,
  0x0f, 0x00, 0x00, 0x00, 0x54, 0x4f, 0x43, 0x4f, 0x20, 0x43, 0x6f, 0x6e,
  0x76, 0x65, 0x72, 0x74, 0x65, 0x64, 0x2e, 0x00, 0x01, 0x00, 0x00, 0x00,
  0x04, 0x00, 0x00, 0x00, 0x28, 0xfa, 0xff, 0xff, 0x84, 0x01, 0x00, 0x00,
  0x78, 0x01, 0x00, 0x00, 0x6c, 0x01, 0x00, 0x00, 0x04, 0x00, 0x00, 0x00,
  0x04, 0x00, 0x00, 0x00, 0x10, 0x01, 0x00, 0x00, 0xa8, 0x00, 0x00, 0x00,
  0x5c, 0x00, 0x00, 0x00, 0x14, 0x00, 0x00, 0x00, 0x00, 0x00, 0x0e, 0x00,
  0x18, 0x00, 0x08, 0x00, 0x0c, 0x00, 0x10, 0x00, 0x07, 0x00, 0x14, 0x00,
  0x0e, 0x00, 0x00, 0x00, 0x00, 0x00, 0x00, 0x08, 0x02, 0x00, 0x00, 0x00,
  0x18, 0x00, 0x00, 0x00, 0x0c, 0x00, 0x00, 0x00, 0x04, 0x00, 0x00, 0x00,
  0x10, 0xfc, 0xff, 0xff, 0x01, 0x00, 0x00, 0x00, 0x08, 0x00, 0x00, 0x00,
  0x03, 0x00, 0x00, 0x00, 0x04, 0x00, 0x00, 0x00, 0x09, 0x00, 0x00, 0x00,
  0x02, 0x00, 0x00, 0x00, 0x00, 0x00, 0x0e, 0x00, 0x14, 0x00, 0x00, 0x00,
  0x08, 0x00, 0x0c, 0x00, 0x07, 0x00, 0x10, 0x00, 0x0e, 0x00, 0x00, 0x00,
  0x00, 0x00, 0x00, 0x01, 0x30, 0x00, 0x00, 0x00, 0x24, 0x00, 0x00, 0x00,
  0x10, 0x00, 0x00, 0x00, 0x0c, 0x00, 0x10, 0x00, 0x00, 0x00, 0x08, 0x00,
  0x0c, 0x00, 0x07, 0x00, 0x0c, 0x00, 0x00, 0x00, 0x00, 0x00, 0x00, 0x01,
  0x08, 0x00, 0x00, 0x00, 0x08, 0x00, 0x00, 0x00, 0x01, 0x00, 0x00, 0x00,
  0x04, 0x00, 0x00, 0x00, 0x03, 0x00, 0x00, 0x00, 0x03, 0x00, 0x00, 0x00,
  0x0b, 0x00, 0x00, 0x00, 0x00, 0x00, 0x00, 0x00, 0xaa, 0xff, 0xff, 0xff,
  0x00, 0x00, 0x00, 0x02, 0x01, 0x00, 0x00, 0x00, 0x38, 0x00, 0x00, 0x00,
  0x2c, 0x00, 0x00, 0x00, 0x14, 0x00, 0x00, 0x00, 0x00, 0x00, 0x0e, 0x00,
  0x14, 0x00, 0x00, 0x00, 0x08, 0x00, 0x0c, 0x00, 0x10, 0x00, 0x07, 0x00,
  0x0e, 0x00, 0x00, 0x00, 0x00, 0x00, 0x00, 0x01, 0x02, 0x00, 0x00, 0x00,
  0x02, 0x00, 0x00, 0x00, 0x08, 0x00, 0x00, 0x00, 0x01, 0x00, 0x00, 0x00,
  0x03, 0x00, 0x00, 0x00, 0x03, 0x00, 0x00, 0x00, 0x06, 0x00, 0x00, 0x00,
  0x0a, 0x00, 0x00, 0x00, 0x01, 0x00, 0x00, 0x00, 0x00, 0x00, 0x0e, 0x00,
  0x1a, 0x00, 0x08, 0x00, 0x0c, 0x00, 0x10, 0x00, 0x07, 0x00, 0x14, 0x00,
  0x0e, 0x00, 0x00, 0x00, 0x00, 0x00, 0x00, 0x11, 0x03, 0x00, 0x00, 0x00,
  0x38, 0x00, 0x00, 0x00, 0x2c, 0x00, 0x00, 0x00, 0x0c, 0x00, 0x00, 0x00,
  0x00, 0x00, 0x06, 0x00, 0x08, 0x00, 0x04, 0x00, 0x06, 0x00, 0x00, 0x00,
  0x04, 0x00, 0x00, 0x00, 0x04, 0x00, 0x00, 0x00, 0xff, 0xff, 0xff, 0xff,
  0x62, 0x00, 0x00, 0x00, 0x28, 0x00, 0x00, 0x00, 0x01, 0x00, 0x00, 0x00,
  0x01, 0x00, 0x00, 0x00, 0x06, 0x00, 0x00, 0x00, 0x02, 0x00, 0x00, 0x00,
  0x05, 0x00, 0x00, 0x00, 0x07, 0x00, 0x00, 0x00, 0x01, 0x00, 0x00, 0x00,
  0x08, 0x00, 0x00, 0x00, 0x01, 0x00, 0x00, 0x00, 0x05, 0x00, 0x00, 0x00,
  0x0c, 0x00, 0x00, 0x00, 0xb4, 0x05, 0x00, 0x00, 0xfc, 0x04, 0x00, 0x00,
  0xa8, 0x04, 0x00, 0x00, 0x28, 0x04, 0x00, 0x00, 0xb0, 0x03, 0x00, 0x00,
  0x3c, 0x03, 0x00, 0x00, 0xc0, 0x02, 0x00, 0x00, 0x80, 0x02, 0x00, 0x00,
  0x10, 0x02, 0x00, 0x00, 0xa4, 0x01, 0x00, 0x00, 0xd0, 0x00, 0x00, 0x00,
  0x04, 0x00, 0x00, 0x00, 0x8a, 0xfa, 0xff, 0xff, 0x00, 0x00, 0x00, 0x09,
  0x9c, 0x00, 0x00, 0x00, 0x04, 0x00, 0x00, 0x00, 0x7c, 0x00, 0x00, 0x00,
  0x04, 0x00, 0x00, 0x00, 0x7c, 0xfa, 0xff, 0xff, 0x4c, 0x00, 0x00, 0x00,
  0x04, 0x00, 0x00, 0x00, 0x08, 0x00, 0x00, 0x00, 0x00, 0x00, 0x00, 0x00,
  0x00, 0x00, 0x00, 0x00, 0x00, 0x00, 0x00, 0x00, 0x00, 0x00, 0x00, 0x00,
  0x00, 0x00, 0x00, 0x00, 0x00, 0x00, 0x00, 0x00, 0x00, 0x00, 0x00, 0x00,
  0x00, 0x00, 0x00, 0x00, 0x00, 0x00, 0x00, 0x00, 0x00, 0x00, 0x00, 0x00,
  0x00, 0x00, 0x00, 0x00, 0x00, 0x00, 0x00, 0x00, 0x00, 0x00, 0x00, 0x00,
  0x00, 0x00, 0x00, 0x00, 0x00, 0x00, 0x00, 0x00, 0x00, 0x00, 0x00, 0x00,
  0x08, 0x00, 0x00, 0x00, 0xb2, 0xfc, 0xd5, 0x39, 0xce, 0xfa, 0xc7, 0x39,
  0x00, 0xfd, 0x6a, 0x39, 0xcb, 0x33, 0x9b, 0x39, 0x6d, 0x42, 0x93, 0x39,
  0xfb, 0x0b, 0x8a, 0x39, 0xca, 0x9b, 0x9d, 0x39, 0x23, 0x77, 0x99, 0x39,
  0x13, 0x00, 0x00, 0x00, 0x73, 0x65, 0x63, 0x6f, 0x6e, 0x64, 0x5f, 0x77,
  0x65, 0x69, 0x67, 0x68, 0x74, 0x73, 0x2f, 0x72, 0x65, 0x61, 0x64, 0x00,
  0x04, 0x00, 0x00, 0x00, 0x08, 0x00, 0x00, 0x00, 0x0a, 0x00, 0x00, 0x00,
  0x08, 0x00, 0x00, 0x00, 0x08, 0x00, 0x00, 0x00, 0x00, 0x00, 0x0e, 0x00,
  0x1a, 0x00, 0x08, 0x00, 0x07, 0x00, 0x0c, 0x00, 0x10, 0x00, 0x14, 0x00,
  0x0e, 0x00, 0x00, 0x00, 0x00, 0x00, 0x00, 0x09, 0xb4, 0x00, 0x00, 0x00,
  0x0b, 0x00, 0x00, 0x00, 0x94, 0x00, 0x00, 0x00, 0x18, 0x00, 0x00, 0x00,
  0x00, 0x00, 0x12, 0x00, 0x10, 0x00, 0x00, 0x00, 0x00, 0x00, 0x04, 0x00,
  0x08, 0x00, 0x00, 0x00, 0x00, 0x00, 0x0c, 0x00, 0x12, 0x00, 0x00, 0x00,
  0x50, 0x00, 0x00, 0x00, 0x08, 0x00, 0x00, 0x00, 0x03, 0x00, 0x00, 0x00,
  0x08, 0x00, 0x00, 0x00, 0x00, 0x00, 0x00, 0x00, 0x00, 0x00, 0x00, 0x00,
  0x00, 0x00, 0x00, 0x00, 0x00, 0x00, 0x00, 0x00, 0x00, 0x00, 0x00, 0x00,
  0x00, 0x00, 0x00, 0x00, 0x00, 0x00, 0x00, 0x00, 0x00, 0x00, 0x00, 0x00,
  0x00, 0x00, 0x00, 0x00, 0x00, 0x00, 0x00, 0x00, 0x00, 0x00, 0x00, 0x00,
  0x00, 0x00, 0x00, 0x00, 0x00, 0x00, 0x00, 0x00, 0x00, 0x00, 0x00, 0x00,
  0x00, 0x00, 0x00, 0x00, 0x00, 0x00, 0x00, 0x00, 0x08, 0x00, 0x00, 0x00,
  0x5a, 0x8f, 0x58, 0x39, 0x01, 0x3b, 0x8a, 0x39, 0xbe, 0x1f, 0x5c, 0x39,
  0x0d, 0xc8, 0x89, 0x39, 0x85, 0xd8, 0x6b, 0x39, 0xb2, 0x0f, 0x72, 0x39,
  0x89, 0xea, 0x59, 0x39, 0x6c, 0x27, 0x68, 0x39, 0x12, 0x00, 0x00, 0x00,
  0x66, 0x69, 0x72, 0x73, 0x74, 0x5f, 0x77, 0x65, 0x69, 0x67, 0x68, 0x74,
  0x73, 0x2f, 0x72, 0x65, 0x61, 0x64, 0x00, 0x00, 0x04, 0x00, 0x00, 0x00,
  0x01, 0x00, 0x00, 0x00, 0x0a, 0x00, 0x00, 0x00, 0x08, 0x00, 0x00, 0x00,
  0x08, 0x00, 0x00, 0x00, 0x22, 0xfc, 0xff, 0xff, 0x00, 0x00, 0x00, 0x09,
  0x54, 0x00, 0x00, 0x00, 0x01, 0x00, 0x00, 0x00, 0x28, 0x00, 0x00, 0x00,
  0x04, 0x00, 0x00, 0x00, 0x14, 0xfc, 0xff, 0xff, 0x14, 0x00, 0x00, 0x00,
  0x04, 0x00, 0x00, 0x00, 0x01, 0x00, 0x00, 0x00, 0x00, 0x00, 0x00, 0x00,
  0x00, 0x00, 0x00, 0x00, 0x01, 0x00, 0x00, 0x00, 0xfb, 0xb7, 0xd4, 0x39,
  0x1f, 0x00, 0x00, 0x00, 0x66, 0x69, 0x6e, 0x61, 0x6c, 0x5f, 0x66, 0x63,
  0x5f, 0x77, 0x65, 0x69, 0x67, 0x68, 0x74, 0x73, 0x2f, 0x72, 0x65, 0x61,
  0x64, 0x2f, 0x74, 0x72, 0x61, 0x6e, 0x73, 0x70, 0x6f, 0x73, 0x65, 0x00,
  0x02, 0x00, 0x00, 0x00, 0x14, 0x00, 0x00, 0x00, 0xa8, 0x00, 0x00, 0x00,
  0x8a, 0xfc, 0xff, 0xff, 0x00, 0x00, 0x00, 0x09, 0x58, 0x00, 0x00, 0x00,
  0x05, 0x00, 0x00, 0x00, 0x44, 0x00, 0x00, 0x00, 0x04, 0x00, 0x00, 0x00,
  0xfc, 0xfd, 0xff, 0xff, 0x30, 0x00, 0x00, 0x00, 0x24, 0x00, 0x00, 0x00,
  0x18, 0x00, 0x00, 0x00, 0x04, 0x00, 0x00, 0x00, 0x01, 0x00, 0x00, 0x00,
  0x0a, 0x00, 0x00, 0x00, 0x00, 0x00, 0x00, 0x00, 0x00, 0x00, 0x00, 0x00,
  0x01, 0x00, 0x00, 0x00, 0xe2, 0xd3, 0x4a, 0x3b, 0x01, 0x00, 0x00, 0x00,
  0x69, 0x20, 0xba, 0x3e, 0x01, 0x00, 0x00, 0x00, 0xb4, 0xf1, 0xd9, 0xbe,
  0x05, 0x00, 0x00, 0x00, 0x61, 0x64, 0x64, 0x5f, 0x32, 0x00, 0x00, 0x00,
  0x02, 0x00, 0x00, 0x00, 0x01, 0x00, 0x00, 0x00, 0x14, 0x00, 0x00, 0x00,
  0xf6, 0xfc, 0xff, 0xff, 0x00, 0x00, 0x00, 0x02, 0x2c, 0x00, 0x00, 0x00,
  0x0c, 0x00, 0x00, 0x00, 0x10, 0x00, 0x00, 0x00, 0x08, 0x00, 0x00, 0x00,
  0x04, 0x00, 0x04, 0x00, 0x04, 0x00, 0x00, 0x00, 0x0f, 0x00, 0x00, 0x00,
  0x52, 0x65, 0x73, 0x68, 0x61, 0x70, 0x65, 0x5f, 0x32, 0x2f, 0x73, 0x68,
  0x61, 0x70, 0x65, 0x00, 0x01, 0x00, 0x00, 0x00, 0x04, 0x00, 0x00, 0x00,
  0x32, 0xfd, 0xff, 0xff, 0x00, 0x00, 0x00, 0x09, 0x5c, 0x00, 0x00, 0x00,
  0x09, 0x00, 0x00, 0x00, 0x44, 0x00, 0x00, 0x00, 0x04, 0x00, 0x00, 0x00,
  0xa4, 0xfe, 0xff, 0xff, 0x30, 0x00, 0x00, 0x00, 0x24, 0x00, 0x00, 0x00,
  0x18, 0x00, 0x00, 0x00, 0x04, 0x00, 0x00, 0x00, 0x01, 0x00, 0x00, 0x00,
  0x80, 0xff, 0xff, 0xff, 0xff, 0xff, 0xff, 0xff, 0x00, 0x00, 0x00, 0x00,
  0x01, 0x00, 0x00, 0x00, 0xdd, 0xdc, 0xcc, 0x3d, 0x01, 0x00, 0x00, 0x00,
  0x00, 0x10, 0xcc, 0x41, 0x01, 0x00, 0x00, 0x00, 0x00, 0x00, 0x00, 0x00,
  0x09, 0x00, 0x00, 0x00, 0x52, 0x65, 0x73, 0x68, 0x61, 0x70, 0x65, 0x5f,
  0x32, 0x00, 0x00, 0x00, 0x04, 0x00, 0x00, 0x00, 0x01, 0x00, 0x00, 0x00,
  0x62, 0x00, 0x00, 0x00, 0x28, 0x00, 0x00, 0x00, 0x01, 0x00, 0x00, 0x00,
  0xaa, 0xfd, 0xff, 0xff, 0x00, 0x00, 0x00, 0x09, 0x5c, 0x00, 0x00, 0x00,
  0x0a, 0x00, 0x00, 0x00, 0x44, 0x00, 0x00, 0x00, 0x04, 0x00, 0x00, 0x00,
  0x1c, 0xff, 0xff, 0xff, 0x30, 0x00, 0x00, 0x00, 0x24, 0x00, 0x00, 0x00,
  0x18, 0x00, 0x00, 0x00, 0x04, 0x00, 0x00, 0x00, 0x01, 0x00, 0x00, 0x00,
  0x80, 0xff, 0xff, 0xff, 0xff, 0xff, 0xff, 0xff, 0x00, 0x00, 0x00, 0x00,
  0x01, 0x00, 0x00, 0x00, 0xdd, 0xdc, 0xcc, 0x3d, 0x01, 0x00, 0x00, 0x00,
  0x00, 0x10, 0xcc, 0x41, 0x01, 0x00, 0x00, 0x00, 0x00, 0x00, 0x00, 0x00,
  0x09, 0x00, 0x00, 0x00, 0x52, 0x65, 0x73, 0x68, 0x61, 0x70, 0x65, 0x5f,
  0x31, 0x00, 0x00, 0x00, 0x02, 0x00, 0x00, 0x00, 0x01, 0x00, 0x00, 0x00,
  0x50, 0x0f, 0x00, 0x00, 0x1a, 0xfe, 0xff, 0xff, 0x00, 0x00, 0x00, 0x09,
  0x58, 0x00, 0x00, 0x00, 0x08, 0x00, 0x00, 0x00, 0x44, 0x00, 0x00, 0x00,
  0x04, 0x00, 0x00, 0x00, 0x8c, 0xff, 0xff, 0xff, 0x30, 0x00, 0x00, 0x00,
  0x24, 0x00, 0x00, 0x00, 0x18, 0x00, 0x00, 0x00, 0x04, 0x00, 0x00, 0x00,
  0x01, 0x00, 0x00, 0x00, 0x80, 0xff, 0xff, 0xff, 0xff, 0xff, 0xff, 0xff,
  0x00, 0x00, 0x00, 0x00, 0x01, 0x00, 0x00, 0x00, 0x51, 0xe2, 0x52, 0x3c,
  0x01, 0x00, 0x00, 0x00, 0x6f, 0x0f, 0x52, 0x40, 0x01, 0x00, 0x00, 0x00,
  0x00, 0x00, 0x00, 0x00, 0x06, 0x00, 0x00, 0x00, 0x52, 0x65, 0x6c, 0x75,
  0x5f, 0x31, 0x00, 0x00, 0x04, 0x00, 0x00, 0x00, 0x01, 0x00, 0x00, 0x00,
  0x07, 0x00, 0x00, 0x00, 0x03, 0x00, 0x00, 0x00, 0x08, 0x00, 0x00, 0x00,
  0x8e, 0xfe, 0xff, 0xff, 0x00, 0x00, 0x00, 0x09, 0x60, 0x00, 0x00, 0x00,
  0x07, 0x00, 0x00, 0x00, 0x4c, 0x00, 0x00, 0x00, 0x10, 0x00, 0x00, 0x00,
  0x0c, 0x00, 0x14, 0x00, 0x04, 0x00, 0x08, 0x00, 0x0c, 0x00, 0x10, 0x00,
  0x0c, 0x00, 0x00, 0x00, 0x2c, 0x00, 0x00, 0x00, 0x20, 0x00, 0x00, 0x00,
  0x14, 0x00, 0x00, 0x00, 0x04, 0x00, 0x00, 0x00, 0x01, 0x00, 0x00, 0x00,
  0x80, 0xff, 0xff, 0xff, 0xff, 0xff, 0xff, 0xff, 0x01, 0x00, 0x00, 0x00,
  0x45, 0xda, 0xed, 0x3c, 0x01, 0x00, 0x00, 0x00, 0x6b, 0xec, 0xec, 0x40,
  0x01, 0x00, 0x00, 0x00, 0x00, 0x00, 0x00, 0x00, 0x04, 0x00, 0x00, 0x00,
  0x52, 0x65, 0x6c, 0x75, 0x00, 0x00, 0x00, 0x00, 0x04, 0x00, 0x00, 0x00,
  0x01, 0x00, 0x00, 0x00, 0x31, 0x00, 0x00, 0x00, 0x14, 0x00, 0x00, 0x00,
  0x08, 0x00, 0x00, 0x00, 0x0a, 0xff, 0xff, 0xff, 0x00, 0x00, 0x00, 0x02,
  0x40, 0x00, 0x00, 0x00, 0x02, 0x00, 0x00, 0x00, 0x28, 0x00, 0x00, 0x00,
  0x04, 0x00, 0x00, 0x00, 0xfc, 0xfe, 0xff, 0xff, 0x14, 0x00, 0x00, 0x00,
  0x04, 0x00, 0x00, 0x00, 0x01, 0x00, 0x00, 0x00, 0x00, 0x00, 0x00, 0x00,
  0x00, 0x00, 0x00, 0x00, 0x01, 0x00, 0x00, 0x00, 0xfa, 0x3a, 0xaf, 0x36,
  0x0b, 0x00, 0x00, 0x00, 0x4d, 0x61, 0x74, 0x4d, 0x75, 0x6c, 0x5f, 0x62,
  0x69, 0x61, 0x73, 0x00, 0x01, 0x00, 0x00, 0x00, 0x14, 0x00, 0x00, 0x00,
  0x5a, 0xff, 0xff, 0xff, 0x00, 0x00, 0x00, 0x02, 0x94, 0x00, 0x00, 0x00,
  0x06, 0x00, 0x00, 0x00, 0x7c, 0x00, 0x00, 0x00, 0x04, 0x00, 0x00, 0x00,
  0x4c, 0xff, 0xff, 0xff, 0x4c, 0x00, 0x00, 0x00, 0x04, 0x00, 0x00, 0x00,
  0x08, 0x00, 0x00, 0x00, 0x00, 0x00, 0x00, 0x00, 0x00, 0x00, 0x00, 0x00,
  0x00, 0x00, 0x00, 0x00, 0x00, 0x00, 0x00, 0x00, 0x00, 0x00, 0x00, 0x00,
  0x00, 0x00, 0x00, 0x00, 0x00, 0x00, 0x00, 0x00, 0x00, 0x00, 0x00, 0x00,
  0x00, 0x00, 0x00, 0x00, 0x00, 0x00, 0x00, 0x00, 0x00, 0x00, 0x00, 0x00,
  0x00, 0x00, 0x00, 0x00, 0x00, 0x00, 0x00, 0x00, 0x00, 0x00, 0x00, 0x00,
  0x00, 0x00, 0x00, 0x00, 0x00, 0x00, 0x00, 0x00, 0x08, 0x00, 0x00, 0x00,
  0x12, 0x4d, 0xad, 0x37, 0x8e, 0x3c, 0xdd, 0x37, 0x35, 0x27, 0xb0, 0x37,
  0x92, 0x84, 0xdc, 0x37, 0x04, 0xbc, 0xbc, 0x37, 0x58, 0xb5, 0xc1, 0x37,
  0xe7, 0x62, 0xae, 0x37, 0xb4, 0xc7, 0xb9, 0x37, 0x0b, 0x00, 0x00, 0x00,
  0x43, 0x6f, 0x6e, 0x76, 0x32, 0x44, 0x5f, 0x62, 0x69, 0x61, 0x73, 0x00,
  0x01, 0x00, 0x00, 0x00, 0x08, 0x00, 0x00, 0x00, 0x00, 0x00, 0x0e, 0x00,
  0x18, 0x00, 0x08, 0x00, 0x07, 0x00, 0x0c, 0x00, 0x10, 0x00, 0x14, 0x00,
  0x0e, 0x00, 0x00, 0x00, 0x00, 0x00, 0x00, 0x02, 0xa4, 0x00, 0x00, 0x00,
  0x03, 0x00, 0x00, 0x00, 0x88, 0x00, 0x00, 0x00, 0x10, 0x00, 0x00, 0x00,
  0x0c, 0x00, 0x0c, 0x00, 0x00, 0x00, 0x00, 0x00, 0x04, 0x00, 0x08, 0x00,
  0x0c, 0x00, 0x00, 0x00, 0x4c, 0x00, 0x00, 0x00, 0x04, 0x00, 0x00, 0x00,
  0x08, 0x00, 0x00, 0x00, 0x00, 0x00, 0x00, 0x00, 0x00, 0x00, 0x00, 0x00,
  0x00, 0x00, 0x00, 0x00, 0x00, 0x00, 0x00, 0x00, 0x00, 0x00, 0x00, 0x00,
  0x00, 0x00, 0x00, 0x00, 0x00, 0x00, 0x00, 0x00, 0x00, 0x00, 0x00, 0x00,
  0x00, 0x00, 0x00, 0x00, 0x00, 0x00, 0x00, 0x00, 0x00, 0x00, 0x00, 0x00,
  0x00, 0x00, 0x00, 0x00, 0x00, 0x00, 0x00, 0x00, 0x00, 0x00, 0x00, 0x00,
  0x00, 0x00, 0x00, 0x00, 0x00, 0x00, 0x00, 0x00, 0x08, 0x00, 0x00, 0x00,
  0x64, 0xd1, 0x46, 0x37, 0xb2, 0xcd, 0x39, 0x37, 0x94, 0x54, 0xda, 0x36,
  0x47, 0x33, 0x10, 0x37, 0x0d, 0xd2, 0x08, 0x37, 0xcb, 0x42, 0x00, 0x37,
  0x9b, 0x6f, 0x12, 0x37, 0x24, 0x96, 0x0e, 0x37, 0x0d, 0x00, 0x00, 0x00,
  0x43, 0x6f, 0x6e, 0x76, 0x32, 0x44, 0x5f, 0x31, 0x5f, 0x62, 0x69, 0x61,
  0x73, 0x00, 0x00, 0x00, 0x01, 0x00, 0x00, 0x00, 0x08, 0x00, 0x00, 0x00,
  0x04, 0x00, 0x00, 0x00, 0x50, 0x00, 0x00, 0x00, 0x34, 0x00, 0x00, 0x00,
  0x18, 0x00, 0x00, 0x00, 0x0c, 0x00, 0x00, 0x00, 0x00, 0x00, 0x06, 0x00,
  0x08, 0x00, 0x07, 0x00, 0x06, 0x00, 0x00, 0x00, 0x00, 0x00, 0x00, 0x16,
  0xf2, 0xff, 0xff, 0xff, 0x00, 0x00, 0x00, 0x09, 0x04, 0x00, 0x00, 0x00,
  0x00, 0x00, 0x0a, 0x00, 0x0e, 0x00, 0x07, 0x00, 0x00, 0x00, 0x08, 0x00,
  0x0a, 0x00, 0x00, 0x00, 0x00, 0x00, 0x00, 0x04, 0x03, 0x00, 0x00, 0x00,
  0x00, 0x00, 0x0a, 0x00, 0x0c, 0x00, 0x07, 0x00, 0x00, 0x00, 0x08, 0x00,
  0x0a, 0x00, 0x00, 0x00, 0x00, 0x00, 0x00, 0x03, 0x03, 0x00, 0x00, 0x00
};
unsigned int _Users_philipmateopfeffer_Desktop_stanford_Y5Q1_cs329e_edna_mode_demo_frozen_models_tiny_embedding_conv_ckpt_200_model_tflite_len = 11736;
